{
  "version": "1.0",
  "truncation": null,
  "padding": null,
  "added_tokens": [
    {
      "id": 0,
      "content": "<PAD>",
      "single_word": false,
      "lstrip": false,
      "rstrip": false,
      "normalized": false,
      "special": true
    },
    {
      "id": 1,
      "content": "<BOS>",
      "single_word": false,
      "lstrip": false,
      "rstrip": false,
      "normalized": false,
      "special": true
    },
    {
      "id": 2,
      "content": "<EOS>",
      "single_word": false,
      "lstrip": false,
      "rstrip": false,
      "normalized": false,
      "special": true
    },
    {
      "id": 3,
      "content": "<UNK>",
      "single_word": false,
      "lstrip": false,
      "rstrip": false,
      "normalized": false,
      "special": true
    }
  ],
  "normalizer": null,
  "pre_tokenizer": {
    "type": "Whitespace"
  },
  "post_processor": null,
  "decoder": null,
  "model": {
    "type": "BPE",
    "dropout": null,
    "unk_token": null,
    "continuing_subword_prefix": null,
    "end_of_word_suffix": null,
    "fuse_unk": false,
    "byte_fallback": false,
    "ignore_merges": false,
    "vocab": {
      "<PAD>": 0,
      "<BOS>": 1,
      "<EOS>": 2,
      "<UNK>": 3,
      "!": 4,
      "\"": 5,
      "#": 6,
      "$": 7,
      "%": 8,
      "&": 9,
      "'": 10,
      "(": 11,
      ")": 12,
      "*": 13,
      "+": 14,
      ",": 15,
      "-": 16,
      ".": 17,
      "/": 18,
      "0": 19,
      "1": 20,
      "2": 21,
      "3": 22,
      "4": 23,
      "5": 24,
      "6": 25,
      "7": 26,
      "8": 27,
      "9": 28,
      ":": 29,
      ";": 30,
      "<": 31,
      "=": 32,
      ">": 33,
      "?": 34,
      "@": 35,
      "A": 36,
      "B": 37,
      "C": 38,
      "D": 39,
      "E": 40,
      "F": 41,
      "G": 42,
      "H": 43,
      "I": 44,
      "J": 45,
      "K": 46,
      "L": 47,
      "M": 48,
      "N": 49,
      "O": 50,
      "P": 51,
      "Q": 52,
      "R": 53,
      "S": 54,
      "T": 55,
      "U": 56,
      "V": 57,
      "W": 58,
      "X": 59,
      "Y": 60,
      "Z": 61,
      "[": 62,
      "\\": 63,
      "]": 64,
      "^": 65,
      "_": 66,
      "`": 67,
      "a": 68,
      "b": 69,
      "c": 70,
      "d": 71,
      "e": 72,
      "f": 73,
      "g": 74,
      "h": 75,
      "i": 76,
      "j": 77,
      "k": 78,
      "l": 79,
      "m": 80,
      "n": 81,
      "o": 82,
      "p": 83,
      "q": 84,
      "r": 85,
      "s": 86,
      "t": 87,
      "u": 88,
      "v": 89,
      "w": 90,
      "x": 91,
      "y": 92,
      "z": 93,
      "{": 94,
      "|": 95,
      "}": 96,
      "~": 97,
      "¢": 98,
      "£": 99,
      "¨": 100,
      "­": 101,
      "®": 102,
      "°": 103,
      "²": 104,
      "´": 105,
      "·": 106,
      "à": 107,
      "á": 108,
      "â": 109,
      "ã": 110,
      "ä": 111,
      "å": 112,
      "æ": 113,
      "ç": 114,
      "è": 115,
      "é": 116,
      "ê": 117,
      "ë": 118,
      "ì": 119,
      "í": 120,
      "î": 121,
      "ï": 122,
      "ñ": 123,
      "ò": 124,
      "ó": 125,
      "ô": 126,
      "ö": 127,
      "ù": 128,
      "ú": 129,
      "û": 130,
      "ü": 131,
      "ā": 132,
      "č": 133,
      "ę": 134,
      "œ": 135,
      "ś": 136,
      "ș": 137,
      "​": 138,
      "‎": 139,
      "–": 140,
      "—": 141,
      "’": 142,
      "“": 143,
      "”": 144,
      "™": 145,
      "﻿": 146,
      "he": 147,
      "the": 148,
      "in": 149,
      "an": 150,
      "re": 151,
      "ou": 152,
      "th": 153,
      "to": 154,
      "and": 155,
      "er": 156,
      "at": 157,
      "on": 158,
      "ed": 159,
      "as": 160,
      "en": 161,
      "is": 162,
      "ing": 163,
      "ll": 164,
      "or": 165,
      "ar": 166,
      "of": 167,
      "it": 168,
      "le": 169,
      "st": 170,
      "ha": 171,
      "me": 172,
      "se": 173,
      "be": 174,
      "ow": 175,
      "you": 176,
      "id": 177,
      "we": 178,
      "ve": 179,
      "ld": 180,
      "was": 181,
      "that": 182,
      "ch": 183,
      "wi": 184,
      "gh": 185,
      "ro": 186,
      "wh": 187,
      "ce": 188,
      "ly": 189,
      "no": 190,
      "ay": 191,
      "for": 192,
      "ut": 193,
      "es": 194,
      "al": 195,
      "so": 196,
      "ad": 197,
      "ir": 198,
      "ver": 199,
      "all": 200,
      "li": 201,
      "ri": 202,
      "sa": 203,
      "ght": 204,
      "his": 205,
      "ent": 206,
      "im": 207,
      "had": 208,
      "un": 209,
      "with": 210,
      "ke": 211,
      "oo": 212,
      "ck": 213,
      "co": 214,
      "ould": 215,
      "her": 216,
      "ti": 217,
      "out": 218,
      "ne": 219,
      "ther": 220,
      ".\"": 221,
      "she": 222,
      "ter": 223,
      "but": 224,
      "they": 225,
      ",\"": 226,
      "ge": 227,
      "mo": 228,
      "ra": 229,
      "su": 230,
      "not": 231,
      "one": 232,
      "ca": 233,
      "de": 234,
      "fe": 235,
      "red": 236,
      "sh": 237,
      "him": 238,
      "do": 239,
      "la": 240,
      "whe": 241,
      "said": 242,
      "go": 243,
      "pe": 244,
      "ur": 245,
      "up": 246,
      "ta": 247,
      "have": 248,
      "bo": 249,
      "now": 250,
      "oun": 251,
      "if": 252,
      "po": 253,
      "ion": 254,
      "were": 255,
      "man": 256,
      "my": 257,
      "te": 258,
      "ab": 259,
      "ss": 260,
      "lo": 261,
      "ard": 262,
      "there": 263,
      "am": 264,
      "us": 265,
      "rom": 266,
      "whi": 267,
      "are": 268,
      "our": 269,
      "this": 270,
      "them": 271,
      "ind": 272,
      "qu": 273,
      "by": 274,
      "from": 275,
      "way": 276,
      "would": 277,
      "own": 278,
      "--": 279,
      "ry": 280,
      "who": 281,
      "ag": 282,
      "ant": 283,
      "some": 284,
      "ust": 285,
      "thing": 286,
      "ight": 287,
      "when": 288,
      "ie": 289,
      "?\"": 290,
      "fa": 291,
      "what": 292,
      "ho": 293,
      "will": 294,
      "con": 295,
      "ound": 296,
      "see": 297,
      "il": 298,
      "fo": 299,
      "ma": 300,
      "tle": 301,
      "very": 302,
      "ong": 303,
      "ct": 304,
      "per": 305,
      "ook": 306,
      "ex": 307,
      "their": 308,
      "can": 309,
      "ul": 310,
      "then": 311,
      "ood": 312,
      "ill": 313,
      "end": 314,
      "which": 315,
      "ough": 316,
      "pp": 317,
      "art": 318,
      "any": 319,
      "lit": 320,
      "ast": 321,
      "mp": 322,
      "af": 323,
      "time": 324,
      "lf": 325,
      "ru": 326,
      "did": 327,
      "wor": 328,
      "could": 329,
      "!\"": 330,
      "too": 331,
      "other": 332,
      "been": 333,
      "your": 334,
      "wo": 335,
      "ain": 336,
      "look": 337,
      "ack": 338,
      "little": 339,
      "fi": 340,
      "king": 341,
      ">:": 342,
      "der": 343,
      "pre": 344,
      "che": 345,
      "gre": 346,
      "et": 347,
      "ous": 348,
      "ide": 349,
      "know": 350,
      "like": 351,
      "mr": 352,
      "about": 353,
      "come": 354,
      "ran": 355,
      "sp": 356,
      "ate": 357,
      "fore": 358,
      "ven": 359,
      "ers": 360,
      "ked": 361,
      "into": 362,
      "ble": 363,
      "well": 364,
      "over": 365,
      "day": 366,
      "how": 367,
      "down": 368,
      "get": 369,
      "ment": 370,
      "op": 371,
      "ought": 372,
      "gr": 373,
      "ep": 374,
      "more": 375,
      "ig": 376,
      "self": 377,
      "urn": 378,
      "ist": 379,
      "after": 380,
      "sto": 381,
      "ac": 382,
      "good": 383,
      "came": 384,
      "ty": 385,
      "ink": 386,
      "ade": 387,
      "ite": 388,
      "than": 389,
      "ine": 390,
      "don": 391,
      "where": 392,
      "ess": 393,
      "ation": 394,
      "mu": 395,
      "men": 396,
      "el": 397,
      "mar": 398,
      "here": 399,
      "br": 400,
      "back": 401,
      "pr": 402,
      "pa": 403,
      "turn": 404,
      "ted": 405,
      "again": 406,
      "mb": 407,
      "ved": 408,
      "ren": 409,
      "pla": 410,
      "ick": 411,
      "pro": 412,
      "ure": 413,
      "say": 414,
      "tain": 415,
      "just": 416,
      "gi": 417,
      "two": 418,
      "long": 419,
      "yes": 420,
      "went": 421,
      "ish": 422,
      "ree": 423,
      "right": 424,
      "jo": 425,
      "new": 426,
      "com": 427,
      "ried": 428,
      "hand": 429,
      "boy": 430,
      "gl": 431,
      "before": 432,
      "old": 433,
      "ance": 434,
      "ass": 435,
      "sha": 436,
      "pl": 437,
      "med": 438,
      "ic": 439,
      "great": 440,
      "ull": 441,
      "let": 442,
      "made": 443,
      "ice": 444,
      "led": 445,
      "ans": 446,
      "ear": 447,
      "much": 448,
      "think": 449,
      "has": 450,
      "sc": 451,
      "ves": 452,
      "should": 453,
      "use": 454,
      "only": 455,
      "off": 456,
      "light": 457,
      "AS": 458,
      "IS": 459,
      "AN": 460,
      "ANT": 461,
      "ASS": 462,
      "IST": 463,
      "ASSIST": 464,
      "ASSISTANT": 465,
      "ap": 466,
      "ving": 467,
      "thr": 468,
      "ward": 469,
      "ally": 470,
      "wat": 471,
      "ting": 472,
      "away": 473,
      "ever": 474,
      "ga": 475,
      "night": 476,
      "read": 477,
      "lu": 478,
      "fir": 479,
      "side": 480,
      "must": 481,
      "never": 482,
      "dis": 483,
      "ort": 484,
      "llow": 485,
      "bet": 486,
      "head": 487,
      "mis": 488,
      "take": 489,
      "tell": 490,
      "tion": 491,
      "ning": 492,
      "low": 493,
      "irl": 494,
      "arm": 495,
      "ful": 496,
      "spe": 497,
      "want": 498,
      "got": 499,
      "upon": 500,
      "gu": 501,
      "ouse": 502,
      "may": 503,
      "most": 504,
      "thought": 505,
      "wa": 506,
      "sm": 507,
      "tra": 508,
      "girl": 509,
      "every": 510,
      "US": 511,
      "ER": 512,
      "USER": 513,
      "ach": 514,
      "ple": 515,
      "asked": 516,
      "di": 517,
      "make": 518,
      "under": 519,
      "roo": 520,
      "going": 521,
      "ity": 522,
      "while": 523,
      "dy": 524,
      "car": 525,
      "first": 526,
      "ild": 527,
      "hed": 528,
      "its": 529,
      "able": 530,
      "house": 531,
      "clo": 532,
      "ts": 533,
      "might": 534,
      "cle": 535,
      "ise": 536,
      "even": 537,
      "est": 538,
      "part": 539,
      "ger": 540,
      "won": 541,
      "call": 542,
      "beg": 543,
      "sent": 544,
      "place": 545,
      "mor": 546,
      "ft": 547,
      "bu": 548,
      "ps": 549,
      "ak": 550,
      "put": 551,
      "ci": 552,
      "ched": 553,
      "ced": 554,
      "ened": 555,
      "oh": 556,
      "ton": 557,
      "ser": 558,
      "tor": 559,
      "vo": 560,
      "cap": 561,
      "son": 562,
      "ence": 563,
      "through": 564,
      "tom": 565,
      "such": 566,
      "hel": 567,
      "father": 568,
      "though": 569,
      "saw": 570,
      "lie": 571,
      "mother": 572,
      "na": 573,
      "row": 574,
      "cla": 575,
      "ated": 576,
      "min": 577,
      "rest": 578,
      "int": 579,
      "shall": 580,
      "rep": 581,
      "room": 582,
      "less": 583,
      "les": 584,
      "ste": 585,
      "try": 586,
      "land": 587,
      "these": 588,
      "full": 589,
      "mon": 590,
      "comp": 591,
      "youn": 592,
      "coun": 593,
      "fri": 594,
      "home": 595,
      "found": 596,
      "hor": 597,
      "mer": 598,
      "ies": 599,
      "tho": 600,
      "once": 601,
      "find": 602,
      "himself": 603,
      "last": 604,
      "ten": 605,
      "miss": 606,
      "turned": 607,
      "child": 608,
      "many": 609,
      "looked": 610,
      "friend": 611,
      "ken": 612,
      "soon": 613,
      "hun": 614,
      "bro": 615,
      "ged": 616,
      "cour": 617,
      "tr": 618,
      "pos": 619,
      "face": 620,
      "tre": 621,
      "took": 622,
      "age": 623,
      "mrs": 624,
      "young": 625,
      "cer": 626,
      "pt": 627,
      "da": 628,
      "sure": 629,
      "den": 630,
      "lad": 631,
      "ber": 632,
      "ince": 633,
      "ious": 634,
      "lt": 635,
      "happ": 636,
      "set": 637,
      "des": 638,
      "ks": 639,
      "give": 640,
      "told": 641,
      "eyes": 642,
      "cor": 643,
      "why": 644,
      "dre": 645,
      "pped": 646,
      "ds": 647,
      "cl": 648,
      "heard": 649,
      "help": 650,
      "bre": 651,
      "cause": 652,
      "three": 653,
      "hi": 654,
      "still": 655,
      "being": 656,
      "par": 657,
      "pleas": 658,
      "far": 659,
      "ner": 660,
      "lea": 661,
      "si": 662,
      "ness": 663,
      "those": 664,
      "another": 665,
      "work": 666,
      "ool": 667,
      "mat": 668,
      "near": 669,
      "water": 670,
      "stand": 671,
      "door": 672,
      "gra": 673,
      "cried": 674,
      "run": 675,
      "lau": 676,
      "nor": 677,
      "ily": 678,
      "ways": 679,
      "something": 680,
      "left": 681,
      "cas": 682,
      "ob": 683,
      "pass": 684,
      "tal": 685,
      "cha": 686,
      "ction": 687,
      "ned": 688,
      "knew": 689,
      "wal": 690,
      "ye": 691,
      "sho": 692,
      "boys": 693,
      "peop": 694,
      "sir": 695,
      "people": 696,
      "cted": 697,
      "fire": 698,
      "enough": 699,
      "ined": 700,
      "ars": 701,
      "without": 702,
      "better": 703,
      "ling": 704,
      "ath": 705,
      "nothing": 706,
      "care": 707,
      "keep": 708,
      "ses": 709,
      "sur": 710,
      "hard": 711,
      "ready": 712,
      "moment": 713,
      "things": 714,
      "seemed": 715,
      "sat": 716,
      "bed": 717,
      "sel": 718,
      "cre": 719,
      "shi": 720,
      "ins": 721,
      "body": 722,
      "unti": 723,
      "mber": 724,
      "spo": 725,
      "cu": 726,
      "wind": 727,
      "tri": 728,
      "few": 729,
      "course": 730,
      "hu": 731,
      "big": 732,
      "jack": 733,
      "follow": 734,
      "year": 735,
      "quite": 736,
      "stoo": 737,
      "bit": 738,
      "until": 739,
      "xt": 740,
      "along": 741,
      "ark": 742,
      "done": 743,
      "mind": 744,
      "ught": 745,
      "ary": 746,
      "because": 747,
      "round": 748,
      "bla": 749,
      "mas": 750,
      "always": 751,
      "ny": 752,
      "yet": 753,
      "ff": 754,
      "wood": 755,
      "air": 756,
      "called": 757,
      "used": 758,
      "feel": 759,
      "began": 760,
      "ded": 761,
      "morning": 762,
      "ross": 763,
      "looking": 764,
      "ph": 765,
      "boat": 766,
      "start": 767,
      "kind": 768,
      "lied": 769,
      "next": 770,
      "tru": 771,
      "du": 772,
      "show": 773,
      "war": 774,
      "sid": 775,
      "each": 776,
      "lat": 777,
      "appe": 778,
      "seen": 779,
      "wait": 780,
      "ang": 781,
      "app": 782,
      "hear": 783,
      "har": 784,
      "ings": 785,
      "half": 786,
      "anything": 787,
      "same": 788,
      "mi": 789,
      "heart": 790,
      "life": 791,
      "stood": 792,
      "vi": 793,
      "sup": 794,
      "captain": 795,
      "tic": 796,
      "pat": 797,
      "je": 798,
      "pi": 799,
      "girls": 800,
      "str": 801,
      "wn": 802,
      "around": 803,
      "ive": 804,
      "white": 805,
      "sk": 806,
      "belie": 807,
      "stre": 808,
      "ster": 809,
      "ju": 810,
      "bl": 811,
      "dist": 812,
      "gave": 813,
      "fair": 814,
      "tin": 815,
      "didn": 816,
      "fully": 817,
      "ished": 818,
      "ign": 819,
      "hour": 820,
      "play": 821,
      "vis": 822,
      "replied": 823,
      "arge": 824,
      "need": 825,
      "fran": 826,
      "lay": 827,
      "ions": 828,
      "sit": 829,
      "dra": 830,
      "times": 831,
      "ze": 832,
      "dan": 833,
      "hur": 834,
      "hold": 835,
      "ms": 836,
      "ared": 837,
      "ket": 838,
      "wered": 839,
      "mean": 840,
      "dear": 841,
      "fort": 842,
      "pose": 843,
      "both": 844,
      "gen": 845,
      "answered": 846,
      "ssi": 847,
      "sun": 848,
      "fast": 849,
      "voice": 850,
      "claim": 851,
      "small": 852,
      "ene": 853,
      "vent": 854,
      "present": 855,
      "toward": 856,
      "nat": 857,
      "bar": 858,
      "ters": 859,
      "sle": 860,
      "does": 861,
      "felt": 862,
      "children": 863,
      "wr": 864,
      "lly": 865,
      "gone": 866,
      "gether": 867,
      "together": 868,
      "cy": 869,
      "name": 870,
      "poor": 871,
      "lor": 872,
      "stu": 873,
      "coming": 874,
      "hands": 875,
      "sch": 876,
      "love": 877,
      "sil": 878,
      "almost": 879,
      "open": 880,
      "certain": 881,
      "tent": 882,
      "dden": 883,
      "fellow": 884,
      "val": 885,
      "ship": 886,
      "four": 887,
      "pret": 888,
      "best": 889,
      "ire": 890,
      "sudden": 891,
      "taken": 892,
      "ped": 893,
      "wonder": 894,
      "dif": 895,
      "hind": 896,
      "days": 897,
      "ised": 898,
      "fin": 899,
      "que": 900,
      "against": 901,
      "ron": 902,
      "pri": 903,
      "minut": 904,
      "sound": 905,
      "till": 906,
      "ently": 907,
      "eas": 908,
      "inter": 909,
      "word": 910,
      "cat": 911,
      "brought": 912,
      "fall": 913,
      "glad": 914,
      "hat": 915,
      "gs": 916,
      "also": 917,
      "ition": 918,
      "kay": 919,
      "offi": 920,
      "bea": 921,
      "hope": 922,
      "inde": 923,
      ".'": 924,
      "camp": 925,
      "ground": 926,
      "cur": 927,
      "mand": 928,
      "iled": 929,
      "however": 930,
      "having": 931,
      "stru": 932,
      "selves": 933,
      "black": 934,
      "feet": 935,
      "oney": 936,
      "oot": 937,
      "reg": 938,
      "ash": 939,
      "dark": 940,
      "pu": 941,
      "table": 942,
      "prince": 943,
      "order": 944,
      "ssed": 945,
      "ank": 946,
      ",'": 947,
      "claimed": 948,
      "possi": 949,
      "dou": 950,
      "bun": 951,
      "eat": 952,
      "bus": 953,
      "hea": 954,
      "quest": 955,
      "others": 956,
      "stay": 957,
      "among": 958,
      "ered": 959,
      "behind": 960,
      "haps": 961,
      "vid": 962,
      "cked": 963,
      "ef": 964,
      "ither": 965,
      "school": 966,
      "fle": 967,
      "perhaps": 968,
      "flo": 969,
      "leave": 970,
      "ris": 971,
      "stran": 972,
      "horse": 973,
      "ni": 974,
      "rather": 975,
      "cut": 976,
      "tu": 977,
      "Okay": 978,
      "uncle": 979,
      "nu": 980,
      "thy": 981,
      "cess": 982,
      "ring": 983,
      "oc": 984,
      "eng": 985,
      "woman": 986,
      "iness": 987,
      "quick": 988,
      "act": 989,
      "close": 990,
      "whole": 991,
      "ah": 992,
      "zed": 993,
      "sing": 994,
      "high": 995,
      "believe": 996,
      "exclaimed": 997,
      "ond": 998,
      "brother": 999,
      "rid": 1000,
      "road": 1001,
      "ask": 1002,
      "bad": 1003,
      "beaut": 1004,
      "wish": 1005,
      "river": 1006,
      "ached": 1007,
      "kes": 1008,
      "large": 1009,
      "friends": 1010,
      "cra": 1011,
      "moun": 1012,
      "years": 1013,
      "joy": 1014,
      "bur": 1015,
      "indeed": 1016,
      "dire": 1017,
      "watch": 1018,
      "ace": 1019,
      "money": 1020,
      "else": 1021,
      "fell": 1022,
      "form": 1023,
      "fl": 1024,
      "chie": 1025,
      "matter": 1026,
      "dick": 1027,
      "dro": 1028,
      "country": 1029,
      "cond": 1030,
      "world": 1031,
      "bir": 1032,
      "cks": 1033,
      "vie": 1034,
      "din": 1035,
      "trou": 1036,
      "sea": 1037,
      "pretty": 1038,
      "fre": 1039,
      "really": 1040,
      "char": 1041,
      "ween": 1042,
      "ches": 1043,
      "chan": 1044,
      "ield": 1045,
      "gener": 1046,
      "board": 1047,
      "pur": 1048,
      "outh": 1049,
      "mit": 1050,
      "bb": 1051,
      "au": 1052,
      "col": 1053,
      "ls": 1054,
      "town": 1055,
      "stra": 1056,
      "vered": 1057,
      "tree": 1058,
      "herself": 1059,
      "swe": 1060,
      "since": 1061,
      "bra": 1062,
      "ian": 1063,
      "expe": 1064,
      "gent": 1065,
      "frank": 1066,
      "between": 1067,
      "feren": 1068,
      "oud": 1069,
      "bor": 1070,
      "rose": 1071,
      "strong": 1072,
      "sever": 1073,
      "vill": 1074,
      "ctor": 1075,
      "van": 1076,
      "wall": 1077,
      "doub": 1078,
      "bab": 1079,
      "tly": 1080,
      "ended": 1081,
      "cent": 1082,
      "reme": 1083,
      "prom": 1084,
      "illed": 1085,
      "tro": 1086,
      "book": 1087,
      "returned": 1088,
      "wer": 1089,
      "break": 1090,
      "fight": 1091,
      "passed": 1092,
      "conf": 1093,
      "als": 1094,
      "em": 1095,
      "serv": 1096,
      "return": 1097,
      "contin": 1098,
      "lady": 1099,
      "words": 1100,
      "fam": 1101,
      "bill": 1102,
      "held": 1103,
      "ele": 1104,
      "unt": 1105,
      "short": 1106,
      "bring": 1107,
      "hn": 1108,
      "wild": 1109,
      "fect": 1110,
      "hen": 1111,
      "ons": 1112,
      "gold": 1113,
      "john": 1114,
      "several": 1115,
      "dri": 1116,
      "tered": 1117,
      "surpr": 1118,
      "chief": 1119,
      "sleep": 1120,
      "possible": 1121,
      "sight": 1122,
      "kept": 1123,
      "dred": 1124,
      "grand": 1125,
      "list": 1126,
      "lot": 1127,
      "thin": 1128,
      "sor": 1129,
      "wee": 1130,
      "pow": 1131,
      "continu": 1132,
      "cid": 1133,
      "roll": 1134,
      "ately": 1135,
      "foot": 1136,
      "themselves": 1137,
      "lost": 1138,
      "suppose": 1139,
      "five": 1140,
      "trouble": 1141,
      "gentle": 1142,
      "blu": 1143,
      "suddenly": 1144,
      "fer": 1145,
      "shed": 1146,
      "quie": 1147,
      "temp": 1148,
      "ations": 1149,
      "across": 1150,
      "lear": 1151,
      "whom": 1152,
      "bear": 1153,
      "ited": 1154,
      "sort": 1155,
      "cul": 1156,
      "ures": 1157,
      "bat": 1158,
      "squ": 1159,
      "laugh": 1160,
      "dr": 1161,
      "hundred": 1162,
      "ces": 1163,
      "speak": 1164,
      "window": 1165,
      "ants": 1166,
      "step": 1167,
      "inte": 1168,
      "mid": 1169,
      "myself": 1170,
      "cho": 1171,
      "wanted": 1172,
      "aw": 1173,
      "party": 1174,
      "real": 1175,
      "talk": 1176,
      "pie": 1177,
      "meet": 1178,
      "iful": 1179,
      "hill": 1180,
      "covered": 1181,
      "arri": 1182,
      "engl": 1183,
      "sis": 1184,
      "sum": 1185,
      "mes": 1186,
      "stead": 1187,
      "rema": 1188,
      "exce": 1189,
      "live": 1190,
      "point": 1191,
      "arms": 1192,
      "cal": 1193,
      "making": 1194,
      "ane": 1195,
      "given": 1196,
      "bow": 1197,
      "ding": 1198,
      "ular": 1199,
      "bert": 1200,
      "started": 1201,
      "gg": 1202,
      "guess": 1203,
      "six": 1204,
      "sie": 1205,
      "fine": 1206,
      "fear": 1207,
      "interest": 1208,
      "gest": 1209,
      "dle": 1210,
      "wife": 1211,
      "imp": 1212,
      "chance": 1213,
      "reached": 1214,
      "sub": 1215,
      "sen": 1216,
      "master": 1217,
      "getting": 1218,
      "ghed": 1219,
      "ating": 1220,
      "exc": 1221,
      "die": 1222,
      "cri": 1223,
      "ason": 1224,
      "sail": 1225,
      "gun": 1226,
      "vy": 1227,
      "raid": 1228,
      "story": 1229,
      "sign": 1230,
      "smi": 1231,
      "ied": 1232,
      "sol": 1233,
      "fron": 1234,
      "forward": 1235,
      "followed": 1236,
      "crow": 1237,
      "rece": 1238,
      "field": 1239,
      "safe": 1240,
      "laughed": 1241,
      "ison": 1242,
      "lead": 1243,
      "sy": 1244,
      "shout": 1245,
      "cli": 1246,
      "band": 1247,
      "thus": 1248,
      "isn": 1249,
      "carry": 1250,
      "top": 1251,
      "added": 1252,
      "fun": 1253,
      "alone": 1254,
      "poin": 1255,
      "stop": 1256,
      "evening": 1257,
      "green": 1258,
      "inst": 1259,
      "cr": 1260,
      "deep": 1261,
      "grow": 1262,
      "says": 1263,
      "second": 1264,
      "send": 1265,
      "dered": 1266,
      "fur": 1267,
      "lle": 1268,
      "beautiful": 1269,
      "dead": 1270,
      "whis": 1271,
      "wel": 1272,
      "god": 1273,
      "ba": 1274,
      "bri": 1275,
      "cou": 1276,
      "grace": 1277,
      "happy": 1278,
      "remar": 1279,
      "snow": 1280,
      "taking": 1281,
      "least": 1282,
      "line": 1283,
      "afraid": 1284,
      "ben": 1285,
      "slow": 1286,
      "gar": 1287,
      "true": 1288,
      "happened": 1289,
      "appeared": 1290,
      "suc": 1291,
      "wouldn": 1292,
      "sw": 1293,
      "cir": 1294,
      "city": 1295,
      "ments": 1296,
      "sides": 1297,
      "front": 1298,
      "bey": 1299,
      "pen": 1300,
      "spoke": 1301,
      "already": 1302,
      "doing": 1303,
      "sed": 1304,
      "please": 1305,
      "abo": 1306,
      "flow": 1307,
      "cold": 1308,
      "uring": 1309,
      "brown": 1310,
      "everything": 1311,
      "often": 1312,
      "ney": 1313,
      "sold": 1314,
      "tel": 1315,
      "noon": 1316,
      "command": 1317,
      "flight": 1318,
      "fact": 1319,
      "thir": 1320,
      "ering": 1321,
      "press": 1322,
      "plan": 1323,
      "minutes": 1324,
      "pull": 1325,
      "mary": 1326,
      "plain": 1327,
      "pal": 1328,
      "stri": 1329,
      "bright": 1330,
      "tail": 1331,
      "known": 1332,
      "differen": 1333,
      "cry": 1334,
      "fred": 1335,
      "fortun": 1336,
      "doll": 1337,
      "tried": 1338,
      "business": 1339,
      "carried": 1340,
      "anim": 1341,
      "lin": 1342,
      "strange": 1343,
      "later": 1344,
      "pping": 1345,
      "cross": 1346,
      "ject": 1347,
      "dog": 1348,
      "person": 1349,
      "appro": 1350,
      "question": 1351,
      "answer": 1352,
      "harry": 1353,
      "fly": 1354,
      "spir": 1355,
      "lord": 1356,
      "usu": 1357,
      "res": 1358,
      "compan": 1359,
      "met": 1360,
      "remember": 1361,
      "trees": 1362,
      "rench": 1363,
      "caught": 1364,
      "ired": 1365,
      "understand": 1366,
      "sof": 1367,
      "although": 1368,
      "arch": 1369,
      "thre": 1370,
      "cannot": 1371,
      "key": 1372,
      "aunt": 1373,
      "cing": 1374,
      "um": 1375,
      "atta": 1376,
      "pain": 1377,
      "por": 1378,
      "ia": 1379,
      "ones": 1380,
      "doctor": 1381,
      "blue": 1382,
      "decla": 1383,
      "pay": 1384,
      "case": 1385,
      "sli": 1386,
      "continued": 1387,
      "fla": 1388,
      "street": 1389,
      "either": 1390,
      "couldn": 1391,
      "hair": 1392,
      "opened": 1393,
      "nice": 1394,
      "ates": 1395,
      "jim": 1396,
      "late": 1397,
      "above": 1398,
      "walked": 1399,
      "stopped": 1400,
      "miles": 1401,
      "posed": 1402,
      "ards": 1403,
      "island": 1404,
      "daught": 1405,
      "gri": 1406,
      "anx": 1407,
      "doubt": 1408,
      "danger": 1409,
      "general": 1410,
      "ker": 1411,
      "dress": 1412,
      "chap": 1413,
      "mountain": 1414,
      "quar": 1415,
      "clu": 1416,
      "mus": 1417,
      "horses": 1418,
      "seem": 1419,
      "certainly": 1420,
      "thank": 1421,
      "begin": 1422,
      "swi": 1423,
      "vers": 1424,
      "power": 1425,
      "antly": 1426,
      "mag": 1427,
      "ors": 1428,
      "vel": 1429,
      "distance": 1430,
      "cup": 1431,
      "cot": 1432,
      "move": 1433,
      "sad": 1434,
      "quickly": 1435,
      "box": 1436,
      "hall": 1437,
      "va": 1438,
      "within": 1439,
      "idea": 1440,
      "walk": 1441,
      "saying": 1442,
      "whether": 1443,
      "position": 1444,
      "sometimes": 1445,
      "noti": 1446,
      "kit": 1447,
      "nearly": 1448,
      "pick": 1449,
      "shar": 1450,
      "ceed": 1451,
      "tend": 1452,
      "death": 1453,
      "during": 1454,
      "farm": 1455,
      "thou": 1456,
      "sister": 1457,
      "became": 1458,
      "paper": 1459,
      "whose": 1460,
      "letter": 1461,
      "clear": 1462,
      "appear": 1463,
      "law": 1464,
      "mine": 1465,
      "ived": 1466,
      "aren": 1467,
      "eag": 1468,
      "hotel": 1469,
      "terri": 1470,
      "dor": 1471,
      "rock": 1472,
      "count": 1473,
      "comes": 1474,
      "bin": 1475,
      "free": 1476,
      "allow": 1477,
      "fish": 1478,
      "soldi": 1479,
      "ey": 1480,
      "fit": 1481,
      "polly": 1482,
      "shot": 1483,
      "standing": 1484,
      "earth": 1485,
      "ase": 1486,
      "ley": 1487,
      "cus": 1488,
      "ruth": 1489,
      "deal": 1490,
      "queen": 1491,
      "mad": 1492,
      "hung": 1493,
      "company": 1494,
      "ball": 1495,
      "cket": 1496,
      "bot": 1497,
      "zz": 1498,
      "reason": 1499,
      "declared": 1500,
      "win": 1501,
      "french": 1502,
      "forest": 1503,
      "mouth": 1504,
      "wise": 1505,
      "running": 1506,
      "straight": 1507,
      "rist": 1508,
      "bell": 1509,
      "delight": 1510,
      "ining": 1511,
      "christ": 1512,
      "aged": 1513,
      "shore": 1514,
      "twent": 1515,
      "consid": 1516,
      "gard": 1517,
      "emp": 1518,
      "scar": 1519,
      "nes": 1520,
      "afternoon": 1521,
      "drew": 1522,
      "rel": 1523,
      "past": 1524,
      "ham": 1525,
      "heavy": 1526,
      "draw": 1527,
      "mir": 1528,
      "twenty": 1529,
      "mur": 1530,
      "hours": 1531,
      "prison": 1532,
      "burn": 1533,
      "rat": 1534,
      "igh": 1535,
      "star": 1536,
      "iling": 1537,
      "thinking": 1538,
      "sharp": 1539,
      "daughter": 1540,
      "tory": 1541,
      "family": 1542,
      "woods": 1543,
      "satis": 1544,
      "tired": 1545,
      "ience": 1546,
      "nest": 1547,
      "trying": 1548,
      "longer": 1549,
      "view": 1550,
      "ths": 1551,
      "served": 1552,
      "ue": 1553,
      "minute": 1554,
      "ging": 1555,
      "lan": 1556,
      "orge": 1557,
      "entered": 1558,
      "means": 1559,
      "ather": 1560,
      "iously": 1561,
      "direction": 1562,
      "ens": 1563,
      "jump": 1564,
      "knight": 1565,
      "nan": 1566,
      "pra": 1567,
      "evid": 1568,
      "hon": 1569,
      "ously": 1570,
      "amer": 1571,
      "enter": 1572,
      "thor": 1573,
      "blow": 1574,
      "dut": 1575,
      "fif": 1576,
      "cru": 1577,
      "ians": 1578,
      "english": 1579,
      "tive": 1580,
      "news": 1581,
      "sou": 1582,
      "bob": 1583,
      "none": 1584,
      "spect": 1585,
      "eye": 1586,
      "sug": 1587,
      "stone": 1588,
      "arrow": 1589,
      "slowly": 1590,
      "sam": 1591,
      "stair": 1592,
      "tou": 1593,
      "suggest": 1594,
      "peter": 1595,
      "force": 1596,
      "morrow": 1597,
      "yourself": 1598,
      "towards": 1599,
      "bly": 1600,
      "ching": 1601,
      "sal": 1602,
      "sweet": 1603,
      "ann": 1604,
      "seems": 1605,
      "diffi": 1606,
      "warm": 1607,
      "difficul": 1608,
      "waiting": 1609,
      "lived": 1610,
      "chapter": 1611,
      "test": 1612,
      "cover": 1613,
      "jor": 1614,
      "sitting": 1615,
      "week": 1616,
      "pict": 1617,
      "surprise": 1618,
      "ith": 1619,
      "guard": 1620,
      "andy": 1621,
      "prof": 1622,
      "gro": 1623,
      "ung": 1624,
      "moved": 1625,
      "bunny": 1626,
      "rich": 1627,
      "ousand": 1628,
      "oose": 1629,
      "feeling": 1630,
      "fresh": 1631,
      "thousand": 1632,
      "army": 1633,
      "reed": 1634,
      "wound": 1635,
      "spot": 1636,
      "easy": 1637,
      "fright": 1638,
      "hid": 1639,
      "sorry": 1640,
      "battle": 1641,
      "smo": 1642,
      "decid": 1643,
      "bird": 1644,
      "fan": 1645,
      "instead": 1646,
      "different": 1647,
      "number": 1648,
      "perfect": 1649,
      "ol": 1650,
      "expected": 1651,
      "stor": 1652,
      "ased": 1653,
      "seeing": 1654,
      "consider": 1655,
      "chair": 1656,
      "advan": 1657,
      "enemy": 1658,
      "village": 1659,
      "rup": 1660,
      "rush": 1661,
      "quiet": 1662,
      "fro": 1663,
      "stick": 1664,
      "west": 1665,
      "struck": 1666,
      "ja": 1667,
      "smile": 1668,
      "expect": 1669,
      "grew": 1670,
      "roy": 1671,
      "amed": 1672,
      "os": 1673,
      "save": 1674,
      "ford": 1675,
      "cow": 1676,
      "reach": 1677,
      "food": 1678,
      "sim": 1679,
      "ized": 1680,
      "shad": 1681,
      "manner": 1682,
      "listen": 1683,
      "pointed": 1684,
      "kets": 1685,
      "decided": 1686,
      "talking": 1687,
      "enjoy": 1688,
      "sla": 1689,
      "bull": 1690,
      "supp": 1691,
      "breakfast": 1692,
      "lic": 1693,
      "onel": 1694,
      "laid": 1695,
      "dar": 1696,
      "early": 1697,
      "beside": 1698,
      "maid": 1699,
      "cape": 1700,
      "scout": 1701,
      "fu": 1702,
      "adv": 1703,
      "therefore": 1704,
      "tw": 1705,
      "luck": 1706,
      "rap": 1707,
      "fav": 1708,
      "likely": 1709,
      "ages": 1710,
      "pleasant": 1711,
      "ges": 1712,
      "hardly": 1713,
      "secre": 1714,
      "\"'": 1715,
      "forgot": 1716,
      "besides": 1717,
      "ingly": 1718,
      "wasn": 1719,
      "?'": 1720,
      "maybe": 1721,
      "ries": 1722,
      "bound": 1723,
      "fig": 1724,
      "dam": 1725,
      "sue": 1726,
      "spring": 1727,
      "ery": 1728,
      "aking": 1729,
      "change": 1730,
      "george": 1731,
      "pair": 1732,
      "lled": 1733,
      "clothe": 1734,
      "hus": 1735,
      "killed": 1736,
      "women": 1737,
      "agreed": 1738,
      "except": 1739,
      "further": 1740,
      "fellows": 1741,
      "build": 1742,
      "haven": 1743,
      "00": 1744,
      "troop": 1745,
      "beat": 1746,
      "ming": 1747,
      "north": 1748,
      "eager": 1749,
      "dinner": 1750,
      "service": 1751,
      "ago": 1752,
      "state": 1753,
      "pered": 1754,
      "necess": 1755,
      "hot": 1756,
      "outside": 1757,
      "occas": 1758,
      "pper": 1759,
      "become": 1760,
      "hal": 1761,
      "wrong": 1762,
      "broken": 1763,
      "spl": 1764,
      "received": 1765,
      "garden": 1766,
      "rode": 1767,
      "ute": 1768,
      "attent": 1769,
      "demand": 1770,
      "gentleman": 1771,
      "bas": 1772,
      "leaving": 1773,
      "rage": 1774,
      "io": 1775,
      "piece": 1776,
      "ahead": 1777,
      "lake": 1778,
      "forth": 1779,
      "isted": 1780,
      "beyond": 1781,
      "mbled": 1782,
      "inqu": 1783,
      "rab": 1784,
      "stairs": 1785,
      "filled": 1786,
      "sage": 1787,
      "placed": 1788,
      "inv": 1789,
      "usual": 1790,
      "search": 1791,
      "floor": 1792,
      "jour": 1793,
      "brid": 1794,
      "colonel": 1795,
      "eight": 1796,
      "below": 1797,
      "sl": 1798,
      "success": 1799,
      "suf": 1800,
      "officer": 1801,
      "hurt": 1802,
      "princess": 1803,
      "xed": 1804,
      "tone": 1805,
      "writ": 1806,
      "fool": 1807,
      "post": 1808,
      "showed": 1809,
      "train": 1810,
      "ican": 1811,
      "coat": 1812,
      "teen": 1813,
      "ride": 1814,
      "dge": 1815,
      "blood": 1816,
      "gy": 1817,
      "stream": 1818,
      "cous": 1819,
      "dest": 1820,
      "truth": 1821,
      "bag": 1822,
      "castle": 1823,
      "kill": 1824,
      "clock": 1825,
      "husband": 1826,
      "inside": 1827,
      "anne": 1828,
      "pray": 1829,
      "suit": 1830,
      "san": 1831,
      "rang": 1832,
      "movie": 1833,
      "seat": 1834,
      "speed": 1835,
      "remarked": 1836,
      "ell": 1837,
      "mun": 1838,
      "worth": 1839,
      "mill": 1840,
      "alley": 1841,
      "gged": 1842,
      "ult": 1843,
      "rabbit": 1844,
      "rain": 1845,
      "cook": 1846,
      "ray": 1847,
      "turning": 1848,
      "arrived": 1849,
      "clothes": 1850,
      "comfor": 1851,
      "medi": 1852,
      "doesn": 1853,
      "broke": 1854,
      "meant": 1855,
      "climb": 1856,
      "mam": 1857,
      "colle": 1858,
      "zing": 1859,
      "shouted": 1860,
      "thee": 1861,
      "game": 1862,
      "cers": 1863,
      "ities": 1864,
      "class": 1865,
      "partic": 1866,
      "pes": 1867,
      "looks": 1868,
      "stren": 1869,
      "paul": 1870,
      "hes": 1871,
      "edge": 1872,
      "summer": 1873,
      "catch": 1874,
      "south": 1875,
      "mn": 1876,
      "pit": 1877,
      "probab": 1878,
      "express": 1879,
      "cher": 1880,
      "baby": 1881,
      "offe": 1882,
      "var": 1883,
      "nie": 1884,
      "scarce": 1885,
      "presently": 1886,
      "exact": 1887,
      "neither": 1888,
      "ping": 1889,
      "zen": 1890,
      "wag": 1891,
      "vol": 1892,
      "journey": 1893,
      "repe": 1894,
      "kne": 1895,
      "exam": 1896,
      "exper": 1897,
      "lies": 1898,
      "proper": 1899,
      "brave": 1900,
      "learn": 1901,
      "pon": 1902,
      "tim": 1903,
      "formed": 1904,
      "betty": 1905,
      "curi": 1906,
      "hole": 1907,
      "threw": 1908,
      "fing": 1909,
      "following": 1910,
      "wards": 1911,
      "tur": 1912,
      "occasion": 1913,
      "ances": 1914,
      "attention": 1915,
      "reply": 1916,
      "giving": 1917,
      "supper": 1918,
      "wide": 1919,
      "fat": 1920,
      "trave": 1921,
      "immedi": 1922,
      "court": 1923,
      "shut": 1924,
      "bank": 1925,
      "port": 1926,
      "ban": 1927,
      "mil": 1928,
      "streng": 1929,
      "gain": 1930,
      "natur": 1931,
      "wonderful": 1932,
      "steps": 1933,
      "sky": 1934,
      "whatever": 1935,
      "rope": 1936,
      "loved": 1937,
      "ress": 1938,
      "posse": 1939,
      "indian": 1940,
      "corner": 1941,
      "indians": 1942,
      "visit": 1943,
      "reck": 1944,
      "attemp": 1945,
      "cheer": 1946,
      "places": 1947,
      "joe": 1948,
      "slight": 1949,
      "attack": 1950,
      "pleased": 1951,
      "knows": 1952,
      "ical": 1953,
      "regard": 1954,
      "breath": 1955,
      "patty": 1956,
      "dream": 1957,
      "ashed": 1958,
      "throw": 1959,
      "charge": 1960,
      "!'": 1961,
      "died": 1962,
      "fox": 1963,
      "pas": 1964,
      "hurry": 1965,
      "jane": 1966,
      "neare": 1967,
      "probably": 1968,
      "particular": 1969,
      "finished": 1970,
      "jer": 1971,
      "vessel": 1972,
      "latter": 1973,
      "vil": 1974,
      "gue": 1975,
      "sand": 1976,
      "sick": 1977,
      "shook": 1978,
      "escape": 1979,
      "comple": 1980,
      "kno": 1981,
      "tage": 1982,
      "noise": 1983,
      "wit": 1984,
      "belong": 1985,
      "soft": 1986,
      "lying": 1987,
      "loud": 1988,
      "tall": 1989,
      "stern": 1990,
      "The": 1991,
      "learned": 1992,
      "hast": 1993,
      "trust": 1994,
      "What": 1995,
      "gas": 1996,
      "wear": 1997,
      "dressed": 1998,
      "officers": 1999,
      "chee": 2000,
      "grass": 2001,
      "peace": 2002,
      "uttered": 2003,
      "iment": 2004,
      "arran": 2005,
      "main": 2006,
      "legs": 2007,
      "easily": 2008,
      "flu": 2009,
      "termin": 2010,
      "neigh": 2011,
      "winter": 2012,
      "papa": 2013,
      "ald": 2014,
      "terrible": 2015,
      "leap": 2016,
      "whispered": 2017,
      "dread": 2018,
      "happen": 2019,
      "neck": 2020,
      "living": 2021,
      "utter": 2022,
      "leng": 2023,
      "silence": 2024,
      "cousin": 2025,
      "unless": 2026,
      "tears": 2027,
      "finally": 2028,
      "chu": 2029,
      "vin": 2030,
      "ref": 2031,
      "entire": 2032,
      "resu": 2033,
      "vic": 2034,
      "fied": 2035,
      "rely": 2036,
      "watched": 2037,
      "nur": 2038,
      "wed": 2039,
      "thick": 2040,
      "deser": 2041,
      "store": 2042,
      "ot": 2043,
      "forget": 2044,
      "remained": 2045,
      "makes": 2046,
      "import": 2047,
      "tors": 2048,
      "itself": 2049,
      "pleasure": 2050,
      "pocket": 2051,
      "advent": 2052,
      "pet": 2053,
      "soldiers": 2054,
      "depart": 2055,
      "ually": 2056,
      "moon": 2057,
      "tained": 2058,
      "ilt": 2059,
      "secret": 2060,
      "burst": 2061,
      "bi": 2062,
      "thered": 2063,
      "fol": 2064,
      "leaves": 2065,
      "quietly": 2066,
      "dropped": 2067,
      "cial": 2068,
      "smiled": 2069,
      "hurried": 2070,
      "ending": 2071,
      "spirit": 2072,
      "dad": 2073,
      "ient": 2074,
      "dollars": 2075,
      "demanded": 2076,
      "pressed": 2077,
      "gate": 2078,
      "strength": 2079,
      "pres": 2080,
      "flowers": 2081,
      "pack": 2082,
      "nod": 2083,
      "aded": 2084,
      "dry": 2085,
      "lar": 2086,
      "faith": 2087,
      "laughing": 2088,
      "waited": 2089,
      "palace": 2090,
      "plent": 2091,
      "mble": 2092,
      "resp": 2093,
      "scre": 2094,
      "ceeded": 2095,
      "youth": 2096,
      "path": 2097,
      "rapid": 2098,
      "chur": 2099,
      "finding": 2100,
      "Yes": 2101,
      "seven": 2102,
      "creat": 2103,
      "ys": 2104,
      "anxious": 2105,
      "motion": 2106,
      "twi": 2107,
      "deck": 2108,
      "everybody": 2109,
      "def": 2110,
      "mission": 2111,
      "storm": 2112,
      "hang": 2113,
      "ork": 2114,
      "fallen": 2115,
      "christmas": 2116,
      "profess": 2117,
      "german": 2118,
      "shes": 2119,
      "surprised": 2120,
      "middle": 2121,
      "immediately": 2122,
      "gle": 2123,
      "wash": 2124,
      "billy": 2125,
      "welcome": 2126,
      "imag": 2127,
      "swift": 2128,
      "ense": 2129,
      "changed": 2130,
      "scene": 2131,
      "exactly": 2132,
      "account": 2133,
      "necessary": 2134,
      "promised": 2135,
      "tily": 2136,
      "nobody": 2137,
      "Th": 2138,
      "hugh": 2139,
      "mitted": 2140,
      "pulled": 2141,
      "birds": 2142,
      "trail": 2143,
      "wheel": 2144,
      "ctly": 2145,
      "surely": 2146,
      "duty": 2147,
      "heads": 2148,
      "equ": 2149,
      "iety": 2150,
      "hit": 2151,
      "length": 2152,
      "wished": 2153,
      "suggested": 2154,
      "deli": 2155,
      "valley": 2156,
      "sn": 2157,
      "tea": 2158,
      "shop": 2159,
      "tern": 2160,
      "telling": 2161,
      "mach": 2162,
      "trip": 2163,
      "cially": 2164,
      "troops": 2165,
      "crowd": 2166,
      "opp": 2167,
      "liked": 2168,
      "jan": 2169,
      "grave": 2170,
      "liar": 2171,
      "nature": 2172,
      "third": 2173,
      "somewhat": 2174,
      "determin": 2175,
      "gover": 2176,
      "ties": 2177,
      "boats": 2178,
      "mbers": 2179,
      "joined": 2180,
      "gall": 2181,
      "content": 2182,
      "closed": 2183,
      "ror": 2184,
      "pun": 2185,
      "goes": 2186,
      "ital": 2187,
      "kis": 2188,
      "helen": 2189,
      "ears": 2190,
      "orders": 2191,
      "leep": 2192,
      "cious": 2193,
      "cis": 2194,
      "raised": 2195,
      "watching": 2196,
      "sword": 2197,
      "silver": 2198,
      "bottom": 2199,
      "othy": 2200,
      "lives": 2201,
      "busy": 2202,
      "asleep": 2203,
      "sey": 2204,
      "lif": 2205,
      "proud": 2206,
      "firm": 2207,
      "non": 2208,
      "guns": 2209,
      "confid": 2210,
      "shoulder": 2211,
      "uten": 2212,
      "plenty": 2213,
      "acqu": 2214,
      "instant": 2215,
      "hero": 2216,
      "assu": 2217,
      "office": 2218,
      "ines": 2219,
      "holding": 2220,
      "bel": 2221,
      "playing": 2222,
      "kin": 2223,
      "ledge": 2224,
      "rate": 2225,
      "appearance": 2226,
      "effect": 2227,
      "church": 2228,
      "rushed": 2229,
      "scarcely": 2230,
      "tran": 2231,
      "ler": 2232,
      "cabin": 2233,
      "spec": 2234,
      "visi": 2235,
      "subject": 2236,
      "expla": 2237,
      "worse": 2238,
      "bran": 2239,
      "ows": 2240,
      "golden": 2241,
      "lock": 2242,
      "boo": 2243,
      "leg": 2244,
      "riage": 2245,
      "beginning": 2246,
      "phi": 2247,
      "drink": 2248,
      "tee": 2249,
      "station": 2250,
      "gray": 2251,
      "nose": 2252,
      "bered": 2253,
      "animals": 2254,
      "bye": 2255,
      "ii": 2256,
      "england": 2257,
      "..": 2258,
      "jest": 2259,
      "mist": 2260,
      "observed": 2261,
      "sett": 2262,
      "relie": 2263,
      "song": 2264,
      "hood": 2265,
      "affair": 2266,
      "buy": 2267,
      "glass": 2268,
      "occup": 2269,
      "skin": 2270,
      "lon": 2271,
      "reco": 2272,
      "ably": 2273,
      "cast": 2274,
      "lips": 2275,
      "pan": 2276,
      "discovered": 2277,
      "bridge": 2278,
      "explained": 2279,
      "chen": 2280,
      "lou": 2281,
      "ordered": 2282,
      "sig": 2283,
      "spre": 2284,
      "yer": 2285,
      "stret": 2286,
      "bene": 2287,
      "willing": 2288,
      "angry": 2289,
      "frightened": 2290,
      "ior": 2291,
      "concer": 2292,
      "noticed": 2293,
      "moving": 2294,
      "yellow": 2295,
      "wis": 2296,
      "picture": 2297,
      "race": 2298,
      "broad": 2299,
      "smoke": 2300,
      "harm": 2301,
      "lovely": 2302,
      "bour": 2303,
      "rough": 2304,
      "susp": 2305,
      "treat": 2306,
      "sounds": 2307,
      "const": 2308,
      "carefully": 2309,
      "corn": 2310,
      "spread": 2311,
      "mbered": 2312,
      "heaven": 2313,
      "awa": 2314,
      "ladies": 2315,
      "rooms": 2316,
      "lieuten": 2317,
      "mbling": 2318,
      "nd": 2319,
      "add": 2320,
      "rail": 2321,
      "promise": 2322,
      "bal": 2323,
      "bs": 2324,
      "pers": 2325,
      "myster": 2326,
      "agree": 2327,
      "gru": 2328,
      "aston": 2329,
      "obli": 2330,
      "figure": 2331,
      "months": 2332,
      "purpose": 2333,
      "resol": 2334,
      "evidently": 2335,
      "object": 2336,
      "fortune": 2337,
      "espe": 2338,
      "bid": 2339,
      "ere": 2340,
      "dorothy": 2341,
      "weather": 2342,
      "ica": 2343,
      "grant": 2344,
      "ured": 2345,
      "anybody": 2346,
      "mighty": 2347,
      "allowed": 2348,
      "Thank": 2349,
      "write": 2350,
      "ific": 2351,
      "mal": 2352,
      "span": 2353,
      "rance": 2354,
      "ude": 2355,
      "paid": 2356,
      "farmer": 2357,
      "tie": 2358,
      "requ": 2359,
      "ships": 2360,
      "dare": 2361,
      "animal": 2362,
      "mamma": 2363,
      "lling": 2364,
      "mountains": 2365,
      "eleph": 2366,
      "acher": 2367,
      "played": 2368,
      "hungry": 2369,
      "earnest": 2370,
      "excite": 2371,
      "action": 2372,
      "dep": 2373,
      "cking": 2374,
      "consc": 2375,
      "cident": 2376,
      "acce": 2377,
      "join": 2378,
      "smiling": 2379,
      "accor": 2380,
      "clean": 2381,
      "rollo": 2382,
      "hig": 2383,
      "How": 2384,
      "walking": 2385,
      "prin": 2386,
      "respon": 2387,
      "notice": 2388,
      "bread": 2389,
      "ility": 2390,
      "cum": 2391,
      "fash": 2392,
      "splend": 2393,
      "thur": 2394,
      "remain": 2395,
      "lieutenant": 2396,
      "rent": 2397,
      "ption": 2398,
      "oured": 2399,
      "ssie": 2400,
      "admir": 2401,
      "ives": 2402,
      "courage": 2403,
      "houses": 2404,
      "single": 2405,
      "drive": 2406,
      "human": 2407,
      "queer": 2408,
      "york": 2409,
      "net": 2410,
      "flew": 2411,
      "fifty": 2412,
      "mile": 2413,
      "ret": 2414,
      "fairy": 2415,
      "wand": 2416,
      "sav": 2417,
      "kitchen": 2418,
      "super": 2419,
      "emb": 2420,
      "sprang": 2421,
      "rocks": 2422,
      "cano": 2423,
      "lean": 2424,
      "convers": 2425,
      "note": 2426,
      "silent": 2427,
      "companion": 2428,
      "ral": 2429,
      "unk": 2430,
      "fashion": 2431,
      "henry": 2432,
      "east": 2433,
      "darkness": 2434,
      "spent": 2435,
      "talked": 2436,
      "shel": 2437,
      "wolf": 2438,
      "cient": 2439,
      "serve": 2440,
      "yards": 2441,
      "greatly": 2442,
      "brit": 2443,
      "fighting": 2444,
      "flat": 2445,
      "alice": 2446,
      "approach": 2447,
      "fra": 2448,
      "ale": 2449,
      "especially": 2450,
      "pieces": 2451,
      "ump": 2452,
      "rob": 2453,
      "ution": 2454,
      "yard": 2455,
      "ishment": 2456,
      "noble": 2457,
      "excited": 2458,
      "impossible": 2459,
      "repeated": 2460,
      "ils": 2461,
      "determined": 2462,
      "ounced": 2463,
      "keeping": 2464,
      "pin": 2465,
      "assist": 2466,
      "march": 2467,
      "suffi": 2468,
      "faces": 2469,
      "om": 2470,
      "weeks": 2471,
      "narrow": 2472,
      "iron": 2473,
      "beast": 2474,
      "walls": 2475,
      "satisfa": 2476,
      "excitement": 2477,
      "built": 2478,
      "lose": 2479,
      "pared": 2480,
      "comr": 2481,
      "recog": 2482,
      "kee": 2483,
      "stranger": 2484,
      "weak": 2485,
      "prepared": 2486,
      "speaking": 2487,
      "robert": 2488,
      "grown": 2489,
      "proved": 2490,
      "regular": 2491,
      "believed": 2492,
      "rence": 2493,
      "kni": 2494,
      "dozen": 2495,
      "iam": 2496,
      "pale": 2497,
      "music": 2498,
      "brothers": 2499,
      "books": 2500,
      "yours": 2501,
      "gathered": 2502,
      "aid": 2503,
      "picked": 2504,
      "perfectly": 2505,
      "wounded": 2506,
      "dance": 2507,
      "obey": 2508,
      "fier": 2509,
      "possess": 2510,
      "conversation": 2511,
      "armed": 2512,
      "bushes": 2513,
      "chester": 2514,
      "broo": 2515,
      "giant": 2516,
      "rie": 2517,
      "llie": 2518,
      "mark": 2519,
      "bobb": 2520,
      "farther": 2521,
      "tied": 2522,
      "marjor": 2523,
      "passing": 2524,
      "tem": 2525,
      "wid": 2526,
      "comfortable": 2527,
      "orn": 2528,
      "wore": 2529,
      "knowing": 2530,
      "za": 2531,
      "listened": 2532,
      "wing": 2533,
      "caused": 2534,
      "stepped": 2535,
      "sna": 2536,
      "cred": 2537,
      "common": 2538,
      "altogether": 2539,
      "respect": 2540,
      "saved": 2541,
      "charac": 2542,
      "exp": 2543,
      "habit": 2544,
      "complete": 2545,
      "ier": 2546,
      "american": 2547,
      "study": 2548,
      "wants": 2549,
      "rolled": 2550,
      "That": 2551,
      "usion": 2552,
      "tis": 2553,
      "favor": 2554,
      "somebody": 2555,
      "conce": 2556,
      "bay": 2557,
      "ama": 2558,
      "marjorie": 2559,
      "remark": 2560,
      "cave": 2561,
      "ws": 2562,
      "fond": 2563,
      "engine": 2564,
      "twel": 2565,
      "hide": 2566,
      "ial": 2567,
      "freddie": 2568,
      "mention": 2569,
      "roof": 2570,
      "lion": 2571,
      "aled": 2572,
      "smith": 2573,
      "ades": 2574,
      "hills": 2575,
      "hut": 2576,
      "putting": 2577,
      "opin": 2578,
      "rer": 2579,
      "hadn": 2580,
      "lun": 2581,
      "calm": 2582,
      "interested": 2583,
      "soul": 2584,
      "guest": 2585,
      "sca": 2586,
      "ange": 2587,
      "sin": 2588,
      "ggl": 2589,
      "lip": 2590,
      "prove": 2591,
      "alth": 2592,
      "ky": 2593,
      "meal": 2594,
      "worked": 2595,
      "magic": 2596,
      "report": 2597,
      "spite": 2598,
      "nearer": 2599,
      "gras": 2600,
      "interrup": 2601,
      "twelve": 2602,
      "chris": 2603,
      "entirely": 2604,
      "ising": 2605,
      "afterwards": 2606,
      "desire": 2607,
      "swim": 2608,
      "using": 2609,
      "tit": 2610,
      "ud": 2611,
      "descri": 2612,
      "affe": 2613,
      "professor": 2614,
      "event": 2615,
      "working": 2616,
      "questions": 2617,
      "splendid": 2618,
      "mend": 2619,
      "ory": 2620,
      "prote": 2621,
      "instru": 2622,
      "uni": 2623,
      "ets": 2624,
      "fancy": 2625,
      "hol": 2626,
      "merry": 2627,
      "sense": 2628,
      "loss": 2629,
      "difficulty": 2630,
      "bon": 2631,
      "aff": 2632,
      "ordin": 2633,
      "roman": 2634,
      "deer": 2635,
      "attend": 2636,
      "loy": 2637,
      "aside": 2638,
      "glan": 2639,
      "inquired": 2640,
      "lifted": 2641,
      "ston": 2642,
      "lines": 2643,
      "forgotten": 2644,
      "ortun": 2645,
      "meeting": 2646,
      "opportun": 2647,
      "poli": 2648,
      "ination": 2649,
      "occur": 2650,
      "carrying": 2651,
      "price": 2652,
      "important": 2653,
      "engaged": 2654,
      "fierce": 2655,
      "glance": 2656,
      "phe": 2657,
      "seized": 2658,
      "ounds": 2659,
      "grou": 2660,
      "nine": 2661,
      "inform": 2662,
      "offered": 2663,
      "shoulders": 2664,
      "jumped": 2665,
      "careful": 2666,
      "ech": 2667,
      "asure": 2668,
      "stones": 2669,
      "tele": 2670,
      "eld": 2671,
      "quarter": 2672,
      "opening": 2673,
      "drawn": 2674,
      "offer": 2675,
      "disap": 2676,
      "mounted": 2677,
      "iz": 2678,
      "natural": 2679,
      "ax": 2680,
      "attempt": 2681,
      "dd": 2682,
      "drawing": 2683,
      "circum": 2684,
      "bold": 2685,
      "meat": 2686,
      "simp": 2687,
      "nurse": 2688,
      "usually": 2689,
      "ctions": 2690,
      "merri": 2691,
      "thrown": 2692,
      "gers": 2693,
      "major": 2694,
      "mess": 2695,
      "thirty": 2696,
      "sty": 2697,
      "letters": 2698,
      "expression": 2699,
      "gif": 2700,
      "los": 2701,
      "settled": 2702,
      "folks": 2703,
      "tight": 2704,
      "soldier": 2705,
      "prac": 2706,
      "remembered": 2707,
      "nut": 2708,
      "married": 2709,
      "thoughts": 2710,
      "couple": 2711,
      "host": 2712,
      "thro": 2713,
      "tender": 2714,
      "born": 2715,
      "cost": 2716,
      "ively": 2717,
      "mead": 2718,
      "gon": 2719,
      "rub": 2720,
      "prevent": 2721,
      "awful": 2722,
      "prefer": 2723,
      "thern": 2724,
      "condu": 2725,
      "ours": 2726,
      "color": 2727,
      "alive": 2728,
      "gage": 2729,
      "funny": 2730,
      "suff": 2731,
      "iff": 2732,
      "ourselves": 2733,
      "coast": 2734,
      "sole": 2735,
      "prepar": 2736,
      "helped": 2737,
      "chat": 2738,
      "wet": 2739,
      "drove": 2740,
      "fal": 2741,
      "escap": 2742,
      "fami": 2743,
      "former": 2744,
      "suspic": 2745,
      "ns": 2746,
      "tommy": 2747,
      "greater": 2748,
      "drop": 2749,
      "gal": 2750,
      "needed": 2751,
      "eagerly": 2752,
      "dom": 2753,
      "And": 2754,
      "cool": 2755,
      "arthur": 2756,
      "touch": 2757,
      "ctive": 2758,
      "surround": 2759,
      "apparen": 2760,
      "elsie": 2761,
      "rising": 2762,
      "wig": 2763,
      "hone": 2764,
      "grat": 2765,
      "experience": 2766,
      "sco": 2767,
      "mart": 2768,
      "Hi": 2769,
      "stir": 2770,
      "spoken": 2771,
      "extra": 2772,
      "bless": 2773,
      "satisfied": 2774,
      "oppos": 2775,
      "rise": 2776,
      "stock": 2777,
      "comfort": 2778,
      "resc": 2779,
      "serious": 2780,
      "disappeared": 2781,
      "dig": 2782,
      "sar": 2783,
      "hesit": 2784,
      "gentlemen": 2785,
      "flying": 2786,
      "fairly": 2787,
      "furn": 2788,
      "craft": 2789,
      "dat": 2790,
      "owned": 2791,
      "dogs": 2792,
      "zy": 2793,
      "dust": 2794,
      "somewhere": 2795,
      "lower": 2796,
      "understood": 2797,
      "twice": 2798,
      "sell": 2799,
      "presence": 2800,
      "according": 2801,
      "growing": 2802,
      "laught": 2803,
      "honor": 2804,
      "beauty": 2805,
      "directly": 2806,
      "rank": 2807,
      "instantly": 2808,
      "gan": 2809,
      "pool": 2810,
      "handsome": 2811,
      "companions": 2812,
      "character": 2813,
      "comb": 2814,
      "threat": 2815,
      "fis": 2816,
      "teeth": 2817,
      "jerry": 2818,
      "pig": 2819,
      "building": 2820,
      "stuff": 2821,
      "haw": 2822,
      "dim": 2823,
      "acquain": 2824,
      "matters": 2825,
      "10": 2826,
      "intended": 2827,
      "rifle": 2828,
      "circumst": 2829,
      "basket": 2830,
      "warri": 2831,
      "stars": 2832,
      "incre": 2833,
      "square": 2834,
      "british": 2835,
      "priv": 2836,
      "bush": 2837,
      "grandfather": 2838,
      "hunting": 2839,
      "bare": 2840,
      "knights": 2841,
      "ening": 2842,
      "portion": 2843,
      "ends": 2844,
      "opinion": 2845,
      "bent": 2846,
      "faint": 2847,
      "thanks": 2848,
      "shadow": 2849,
      "monkey": 2850,
      "difficult": 2851,
      "desper": 2852,
      "aster": 2853,
      "len": 2854,
      "une": 2855,
      "supposed": 2856,
      "neighbor": 2857,
      "various": 2858,
      "polit": 2859,
      "lads": 2860,
      "anyone": 2861,
      "regiment": 2862,
      "ordinary": 2863,
      "vey": 2864,
      "slept": 2865,
      "rapidly": 2866,
      "fixed": 2867,
      "blan": 2868,
      "sme": 2869,
      "symp": 2870,
      "tar": 2871,
      "nel": 2872,
      "ville": 2873,
      "milk": 2874,
      "travel": 2875,
      "named": 2876,
      "ric": 2877,
      "doors": 2878,
      "windows": 2879,
      "obliged": 2880,
      "cles": 2881,
      "cure": 2882,
      "shoes": 2883,
      "dies": 2884,
      "desc": 2885,
      "ual": 2886,
      "gets": 2887,
      "wra": 2888,
      "leader": 2889,
      "slipped": 2890,
      "kindly": 2891,
      "tails": 2892,
      "hy": 2893,
      "seated": 2894,
      "simply": 2895,
      "opposite": 2896,
      "vir": 2897,
      "chin": 2898,
      "situ": 2899,
      "calling": 2900,
      "managed": 2901,
      "scot": 2902,
      "creature": 2903,
      "ggs": 2904,
      "crew": 2905,
      "llo": 2906,
      "older": 2907,
      "fired": 2908,
      "apart": 2909,
      "ana": 2910,
      "fill": 2911,
      "spend": 2912,
      "alo": 2913,
      "jud": 2914,
      "intent": 2915,
      "feat": 2916,
      "nodded": 2917,
      "gust": 2918,
      "scouts": 2919,
      "fut": 2920,
      "jas": 2921,
      "You": 2922,
      "pop": 2923,
      "scra": 2924,
      "som": 2925,
      "anyway": 2926,
      "chant": 2927,
      "hearing": 2928,
      "tha": 2929,
      "cro": 2930,
      "carriage": 2931,
      "feather": 2932,
      "opportunity": 2933,
      "rust": 2934,
      "touched": 2935,
      "considerable": 2936,
      "dave": 2937,
      "size": 2938,
      "mud": 2939,
      "vain": 2940,
      "shell": 2941,
      "extre": 2942,
      "wro": 2943,
      "mate": 2944,
      "yo": 2945,
      "viol": 2946,
      "wondered": 2947,
      "advance": 2948,
      "git": 2949,
      "wagon": 2950,
      "alarm": 2951,
      "exer": 2952,
      "athe": 2953,
      "tiny": 2954,
      "france": 2955,
      "irt": 2956,
      "ents": 2957,
      "fold": 2958,
      "ister": 2959,
      "tless": 2960,
      "riding": 2961,
      "gather": 2962,
      "chuck": 2963,
      "begged": 2964,
      "sake": 2965,
      "police": 2966,
      "bes": 2967,
      "voy": 2968,
      "aring": 2969,
      "sorrow": 2970,
      "servant": 2971,
      "distur": 2972,
      "ali": 2973,
      "leading": 2974,
      "gently": 2975,
      "daddy": 2976,
      "plu": 2977,
      "bitter": 2978,
      "advanced": 2979,
      "mass": 2980,
      "vided": 2981,
      "share": 2982,
      "dreadful": 2983,
      "hoped": 2984,
      "pink": 2985,
      "sequ": 2986,
      "adventure": 2987,
      "attra": 2988,
      "bobbsey": 2989,
      "passage": 2990,
      "vig": 2991,
      "ost": 2992,
      "london": 2993,
      "laun": 2994,
      "huge": 2995,
      "lope": 2996,
      "settle": 2997,
      "majest": 2998,
      "ashing": 2999,
      "ists": 3000,
      "knife": 3001,
      "shoot": 3002,
      "rested": 3003,
      "ified": 3004,
      "dun": 3005,
      "cart": 3006,
      "vest": 3007,
      "satisfaction": 3008,
      "laughter": 3009,
      "It": 3010,
      "elephant": 3011,
      "hunt": 3012,
      "beach": 3013,
      "royal": 3014,
      "fingers": 3015,
      "month": 3016,
      "hidden": 3017,
      "oon": 3018,
      "marry": 3019,
      "pushed": 3020,
      "message": 3021,
      "empty": 3022,
      "inf": 3023,
      "accident": 3024,
      "sport": 3025,
      "quarters": 3026,
      "oom": 3027,
      "wrote": 3028,
      "ava": 3029,
      "teach": 3030,
      "anyhow": 3031,
      "eping": 3032,
      "smoo": 3033,
      "softly": 3034,
      "princi": 3035,
      "atest": 3036,
      "ip": 3037,
      "david": 3038,
      "prisoner": 3039,
      "sigh": 3040,
      "teacher": 3041,
      "ggy": 3042,
      "gay": 3043,
      "forced": 3044,
      "advice": 3045,
      "guide": 3046,
      "cand": 3047,
      "plant": 3048,
      "fare": 3049,
      "written": 3050,
      "ester": 3051,
      "greet": 3052,
      "tongue": 3053,
      "phil": 3054,
      "knowledge": 3055,
      "lone": 3056,
      "announced": 3057,
      "clou": 3058,
      "condition": 3059,
      "russ": 3060,
      "explain": 3061,
      "falling": 3062,
      "generally": 3063,
      "pot": 3064,
      "solute": 3065,
      "pictures": 3066,
      "flower": 3067,
      "canoe": 3068,
      "foolish": 3069,
      "barn": 3070,
      "fru": 3071,
      "craw": 3072,
      "Do": 3073,
      "truly": 3074,
      "loose": 3075,
      "conside": 3076,
      "considered": 3077,
      "voices": 3078,
      "pho": 3079,
      "worn": 3080,
      "honest": 3081,
      "paren": 3082,
      "rear": 3083,
      "pill": 3084,
      "vere": 3085,
      "crossed": 3086,
      "sive": 3087,
      "produ": 3088,
      "somehow": 3089,
      "stan": 3090,
      "separ": 3091,
      "oce": 3092,
      "pity": 3093,
      "grad": 3094,
      "moments": 3095,
      "speech": 3096,
      "wicked": 3097,
      "delighted": 3098,
      "eds": 3099,
      "lots": 3100,
      "auto": 3101,
      "walter": 3102,
      "recogni": 3103,
      "Is": 3104,
      "handed": 3105,
      "sooner": 3106,
      "robin": 3107,
      "simple": 3108,
      "asc": 3109,
      "fet": 3110,
      "sses": 3111,
      "space": 3112,
      "curious": 3113,
      "approached": 3114,
      "log": 3115,
      "eating": 3116,
      "takes": 3117,
      "accus": 3118,
      "fields": 3119,
      "motor": 3120,
      "spirits": 3121,
      "greatest": 3122,
      "evil": 3123,
      "lands": 3124,
      "eve": 3125,
      "fought": 3126,
      "future": 3127,
      "powerful": 3128,
      "information": 3129,
      "absolute": 3130,
      "distant": 3131,
      "william": 3132,
      "fifteen": 3133,
      "showing": 3134,
      "langu": 3135,
      "chor": 3136,
      "reading": 3137,
      "colu": 3138,
      "kid": 3139,
      "lia": 3140,
      "bru": 3141,
      "manage": 3142,
      "hunter": 3143,
      "butter": 3144,
      "grin": 3145,
      "mistress": 3146,
      "sne": 3147,
      "tramp": 3148,
      "circumstances": 3149,
      "thinks": 3150,
      "av": 3151,
      "lessly": 3152,
      "ize": 3153,
      "via": 3154,
      "asses": 3155,
      "beth": 3156,
      "yester": 3157,
      "choose": 3158,
      "mistake": 3159,
      "blind": 3160,
      "tended": 3161,
      "effort": 3162,
      "prisoners": 3163,
      "honour": 3164,
      "kick": 3165,
      "plans": 3166,
      "shining": 3167,
      "driven": 3168,
      "ony": 3169,
      "py": 3170,
      "chase": 3171,
      "advantage": 3172,
      "signal": 3173,
      "cell": 3174,
      "eli": 3175,
      "assured": 3176,
      "tering": 3177,
      "mies": 3178,
      "wings": 3179,
      "eu": 3180,
      "thorough": 3181,
      "kat": 3182,
      "ias": 3183,
      "sounded": 3184,
      "yesterday": 3185,
      "dru": 3186,
      "reckon": 3187,
      "mured": 3188,
      "toes": 3189,
      "ko": 3190,
      "ocean": 3191,
      "bee": 3192,
      "papers": 3193,
      "memor": 3194,
      "arrange": 3195,
      "isto": 3196,
      "murmured": 3197,
      "mour": 3198,
      "crying": 3199,
      "cliff": 3200,
      "result": 3201,
      "stout": 3202,
      "stro": 3203,
      "rand": 3204,
      "mond": 3205,
      "interrupted": 3206,
      "conne": 3207,
      "prompt": 3208,
      "rit": 3209,
      "escaped": 3210,
      "lished": 3211,
      "duke": 3212,
      "flossie": 3213,
      "charlie": 3214,
      "weap": 3215,
      "mie": 3216,
      "kins": 3217,
      "vio": 3218,
      "destroy": 3219,
      "weight": 3220,
      "consu": 3221,
      "parts": 3222,
      "knees": 3223,
      "heap": 3224,
      "worthy": 3225,
      "ury": 3226,
      "gress": 3227,
      "proceeded": 3228,
      "chest": 3229,
      "circus": 3230,
      "tas": 3231,
      "fail": 3232,
      "jolly": 3233,
      "load": 3234,
      "dangerous": 3235,
      "forty": 3236,
      "failed": 3237,
      "refle": 3238,
      "ceased": 3239,
      "friendly": 3240,
      "ile": 3241,
      "worst": 3242,
      "mollie": 3243,
      "leaped": 3244,
      "singing": 3245,
      "fortunate": 3246,
      "pony": 3247,
      "higher": 3248,
      "hore": 3249,
      "frequ": 3250,
      "han": 3251,
      "lyn": 3252,
      "jes": 3253,
      "majesty": 3254,
      "trick": 3255,
      "oper": 3256,
      "bought": 3257,
      "compla": 3258,
      "confess": 3259,
      "dot": 3260,
      "chick": 3261,
      "els": 3262,
      "feast": 3263,
      "puzz": 3264,
      "ishing": 3265,
      "judge": 3266,
      "interesting": 3267,
      "native": 3268,
      "extreme": 3269,
      "owed": 3270,
      "private": 3271,
      "breast": 3272,
      "brush": 3273,
      "jasper": 3274,
      "thunder": 3275,
      "woke": 3276,
      "sighed": 3277,
      "treated": 3278,
      "hath": 3279,
      "admitted": 3280,
      "aro": 3281,
      "scat": 3282,
      "ki": 3283,
      "vous": 3284,
      "lored": 3285,
      "strike": 3286,
      "brief": 3287,
      "merely": 3288,
      "push": 3289,
      "names": 3290,
      "ners": 3291,
      "crack": 3292,
      "group": 3293,
      "avo": 3294,
      "cil": 3295,
      "rad": 3296,
      "streets": 3297,
      "muttered": 3298,
      "caval": 3299,
      "buff": 3300,
      "delay": 3301,
      "brook": 3302,
      "pier": 3303,
      "blic": 3304,
      "whenever": 3305,
      "hosp": 3306,
      "author": 3307,
      "mex": 3308,
      "stam": 3309,
      "difference": 3310,
      "conscious": 3311,
      "lucky": 3312,
      "succeeded": 3313,
      "gin": 3314,
      "squire": 3315,
      "amoun": 3316,
      "club": 3317,
      "stretched": 3318,
      "patient": 3319,
      "coll": 3320,
      "climbed": 3321,
      "hanging": 3322,
      "ater": 3323,
      "hate": 3324,
      "fault": 3325,
      "steam": 3326,
      "appre": 3327,
      "mel": 3328,
      "tian": 3329,
      "ture": 3330,
      "gree": 3331,
      "receive": 3332,
      "lli": 3333,
      "pursu": 3334,
      "paused": 3335,
      "ington": 3336,
      "worry": 3337,
      "philip": 3338,
      "gran": 3339,
      "asking": 3340,
      "hearts": 3341,
      "hollow": 3342,
      "indign": 3343,
      "apparently": 3344,
      "forts": 3345,
      "trot": 3346,
      "thrust": 3347,
      "mort": 3348,
      "perce": 3349,
      "cluded": 3350,
      "beneath": 3351,
      "edward": 3352,
      "upper": 3353,
      "umb": 3354,
      "comrades": 3355,
      "consequ": 3356,
      "bree": 3357,
      "iv": 3358,
      "cting": 3359,
      "ridge": 3360,
      "coo": 3361,
      "fisher": 3362,
      "arrival": 3363,
      "cheeks": 3364,
      "enemies": 3365,
      "sisters": 3366,
      "cation": 3367,
      "stayed": 3368,
      "dee": 3369,
      "shine": 3370,
      "wine": 3371,
      "possibly": 3372,
      "revol": 3373,
      "trunk": 3374,
      "entrance": 3375,
      "situation": 3376,
      "ashore": 3377,
      "itions": 3378,
      "proceed": 3379,
      "height": 3380,
      "offee": 3381,
      "sheep": 3382,
      "lla": 3383,
      "pole": 3384,
      "thri": 3385,
      "locked": 3386,
      "cruel": 3387,
      "triump": 3388,
      "temper": 3389,
      "owl": 3390,
      "hastily": 3391,
      "special": 3392,
      "feelings": 3393,
      "accomp": 3394,
      "wondering": 3395,
      "fered": 3396,
      "bled": 3397,
      "finger": 3398,
      "branches": 3399,
      "bury": 3400,
      "loo": 3401,
      "cottage": 3402,
      "solemn": 3403,
      "glanced": 3404,
      "gily": 3405,
      "',": 3406,
      "coffee": 3407,
      "mere": 3408,
      "stories": 3409,
      "itation": 3410,
      "shape": 3411,
      "returning": 3412,
      "elect": 3413,
      "keen": 3414,
      "squir": 3415,
      "burning": 3416,
      "custom": 3417,
      "ghost": 3418,
      "taught": 3419,
      "sons": 3420,
      "missed": 3421,
      "check": 3422,
      "ila": 3423,
      "amy": 3424,
      "surface": 3425,
      "pipe": 3426,
      "itude": 3427,
      "clouds": 3428,
      "fate": 3429,
      "steal": 3430,
      "servants": 3431,
      "gasped": 3432,
      "machine": 3433,
      "begun": 3434,
      "presented": 3435,
      "james": 3436,
      "marched": 3437,
      "actually": 3438,
      "exe": 3439,
      "stal": 3440,
      "fortunately": 3441,
      "risk": 3442,
      "wil": 3443,
      "lis": 3444,
      "commun": 3445,
      "shelter": 3446,
      "eggs": 3447,
      "wiggily": 3448,
      "excell": 3449,
      "bringing": 3450,
      "throat": 3451,
      "pointing": 3452,
      "ference": 3453,
      "goat": 3454,
      "sufficient": 3455,
      "pru": 3456,
      "fastened": 3457,
      "arranged": 3458,
      "possession": 3459,
      "illy": 3460,
      "iday": 3461,
      "ggle": 3462,
      "savage": 3463,
      "thie": 3464,
      "request": 3465,
      "influ": 3466,
      "grim": 3467,
      "feed": 3468,
      "swept": 3469,
      "circle": 3470,
      "gli": 3471,
      "owing": 3472,
      "shaking": 3473,
      "occupied": 3474,
      "pard": 3475,
      "sailor": 3476,
      "natives": 3477,
      "larger": 3478,
      "occurred": 3479,
      "lucy": 3480,
      "relief": 3481,
      "gazed": 3482,
      "oak": 3483,
      "unable": 3484,
      "enthus": 3485,
      "confidence": 3486,
      "frog": 3487,
      "trap": 3488,
      "grate": 3489,
      "osity": 3490,
      "match": 3491,
      "writing": 3492,
      "orted": 3493,
      "cloud": 3494,
      "imagine": 3495,
      "indic": 3496,
      "vision": 3497,
      "Can": 3498,
      "due": 3499,
      "buck": 3500,
      "contr": 3501,
      "incl": 3502,
      "aware": 3503,
      "),": 3504,
      "sang": 3505,
      "lighted": 3506,
      "awake": 3507,
      "task": 3508,
      "refused": 3509,
      "familiar": 3510,
      "tured": 3511,
      "steamer": 3512,
      "midst": 3513,
      "public": 3514,
      "reve": 3515,
      "commander": 3516,
      "pic": 3517,
      "diam": 3518,
      "anger": 3519,
      "track": 3520,
      "employ": 3521,
      "seek": 3522,
      "bottle": 3523,
      "knocked": 3524,
      "rious": 3525,
      "clever": 3526,
      "meanwhile": 3527,
      "dec": 3528,
      "listening": 3529,
      "herd": 3530,
      "asse": 3531,
      "smooth": 3532,
      "pecu": 3533,
      "triumph": 3534,
      "shown": 3535,
      "stuck": 3536,
      "whisper": 3537,
      "peculiar": 3538,
      "protest": 3539,
      "bud": 3540,
      "tomed": 3541,
      "fence": 3542,
      "mps": 3543,
      "waves": 3544,
      "PM": 3545,
      "jimmy": 3546,
      "closely": 3547,
      "approaching": 3548,
      "cloth": 3549,
      "15": 3550,
      "chamber": 3551,
      "keeper": 3552,
      "guests": 3553,
      "intro": 3554,
      "corre": 3555,
      "graph": 3556,
      "bore": 3557,
      "college": 3558,
      "treasure": 3559,
      "liber": 3560,
      "gging": 3561,
      "safety": 3562,
      "job": 3563,
      "introdu": 3564,
      "today": 3565,
      "devo": 3566,
      "lest": 3567,
      "signs": 3568,
      "bul": 3569,
      "cora": 3570,
      "tower": 3571,
      "parents": 3572,
      "ppy": 3573,
      "discu": 3574,
      "warning": 3575,
      "bade": 3576,
      "pup": 3577,
      "intend": 3578,
      "buffalo": 3579,
      "shame": 3580,
      "sion": 3581,
      "ams": 3582,
      "ises": 3583,
      "range": 3584,
      "naturally": 3585,
      "gained": 3586,
      "shoo": 3587,
      "enthusias": 3588,
      "dece": 3589,
      "vious": 3590,
      "excuse": 3591,
      "season": 3592,
      "favour": 3593,
      "cattle": 3594,
      "oused": 3595,
      "swam": 3596,
      "unto": 3597,
      "goin": 3598,
      "anywhere": 3599,
      "discover": 3600,
      "bunker": 3601,
      "accustomed": 3602,
      "enger": 3603,
      "affection": 3604,
      "exped": 3605,
      "yon": 3606,
      "sleeping": 3607,
      "jen": 3608,
      "charm": 3609,
      "resist": 3610,
      "insisted": 3611,
      "double": 3612,
      "eaten": 3613,
      "lights": 3614,
      "grandmother": 3615,
      "fix": 3616,
      "afterward": 3617,
      "spare": 3618,
      "soc": 3619,
      "tip": 3620,
      "jac": 3621,
      "landed": 3622,
      "ralph": 3623,
      "lee": 3624,
      "obje": 3625,
      "pisto": 3626,
      "avoid": 3627,
      "pad": 3628,
      "waters": 3629,
      "cler": 3630,
      "commanded": 3631,
      "commen": 3632,
      "shake": 3633,
      "sible": 3634,
      "No": 3635,
      "crep": 3636,
      "sailed": 3637,
      "anxiously": 3638,
      "vine": 3639,
      "pir": 3640,
      "hook": 3641,
      "fruit": 3642,
      "feared": 3643,
      "compe": 3644,
      "badly": 3645,
      "martin": 3646,
      "lod": 3647,
      "younger": 3648,
      "voyage": 3649,
      "sque": 3650,
      "chum": 3651,
      "inno": 3652,
      "wooden": 3653,
      "realized": 3654,
      "neighbour": 3655,
      "visions": 3656,
      "pride": 3657,
      "crept": 3658,
      "dashed": 3659,
      "emer": 3660,
      "ert": 3661,
      "plate": 3662,
      "shouldn": 3663,
      "Hell": 3664,
      "Al": 3665,
      "fleet": 3666,
      "hay": 3667,
      "govern": 3668,
      "saddle": 3669,
      "Hello": 3670,
      "steady": 3671,
      "ius": 3672,
      "cavalry": 3673,
      "ame": 3674,
      "dete": 3675,
      "ilar": 3676,
      "cree": 3677,
      "tire": 3678,
      "details": 3679,
      "evident": 3680,
      "ram": 3681,
      "mouse": 3682,
      "aim": 3683,
      "mercy": 3684,
      "flag": 3685,
      "ka": 3686,
      "20": 3687,
      "plun": 3688,
      "darling": 3689,
      "abs": 3690,
      "button": 3691,
      "inging": 3692,
      "roar": 3693,
      "caut": 3694,
      "valu": 3695,
      "ically": 3696,
      "mac": 3697,
      "dancing": 3698,
      "stared": 3699,
      "required": 3700,
      "haste": 3701,
      "tum": 3702,
      "bility": 3703,
      "captured": 3704,
      "resolved": 3705,
      "arti": 3706,
      "amount": 3707,
      "18": 3708,
      "engers": 3709,
      "rin": 3710,
      "precious": 3711,
      "safely": 3712,
      "property": 3713,
      "minds": 3714,
      "hiding": 3715,
      "accept": 3716,
      "temple": 3717,
      "warriors": 3718,
      "rot": 3719,
      "theless": 3720,
      "desperate": 3721,
      "kerchief": 3722,
      "miser": 3723,
      "fil": 3724,
      "cake": 3725,
      "spa": 3726,
      "vast": 3727,
      "equal": 3728,
      "shaw": 3729,
      "history": 3730,
      "hers": 3731,
      "counter": 3732,
      "happiness": 3733,
      "ee": 3734,
      "clam": 3735,
      "despair": 3736,
      "paris": 3737,
      "cheerful": 3738,
      "impress": 3739,
      "language": 3740,
      "bark": 3741,
      "erson": 3742,
      "anxiety": 3743,
      "bby": 3744,
      "fled": 3745,
      "wake": 3746,
      "patience": 3747,
      "ug": 3748,
      "brig": 3749,
      "otherwise": 3750,
      "flash": 3751,
      "holiday": 3752,
      "tale": 3753,
      "enjoyed": 3754,
      "obtain": 3755,
      "nevertheless": 3756,
      "crown": 3757,
      "isy": 3758,
      "hither": 3759,
      "consent": 3760,
      "headed": 3761,
      "aboard": 3762,
      "completely": 3763,
      "eh": 3764,
      "susan": 3765,
      "sele": 3766,
      "quer": 3767,
      "burned": 3768,
      "colored": 3769,
      "meadow": 3770,
      "asha": 3771,
      "particularly": 3772,
      "tones": 3773,
      "starting": 3774,
      "tically": 3775,
      "pest": 3776,
      "sorts": 3777,
      "governor": 3778,
      "pond": 3779,
      "accompan": 3780,
      "retor": 3781,
      "goodness": 3782,
      "lonely": 3783,
      "skill": 3784,
      "plat": 3785,
      "een": 3786,
      "camer": 3787,
      "sunday": 3788,
      "batter": 3789,
      "sympath": 3790,
      "arose": 3791,
      "tice": 3792,
      "anti": 3793,
      "ener": 3794,
      "center": 3795,
      "card": 3796,
      "health": 3797,
      "terror": 3798,
      "kissed": 3799,
      "groan": 3800,
      "lance": 3801,
      "address": 3802,
      "echo": 3803,
      "amuse": 3804,
      "boots": 3805,
      "tay": 3806,
      "sailors": 3807,
      "mobi": 3808,
      "slip": 3809,
      "jackson": 3810,
      "xx": 3811,
      "cured": 3812,
      "polite": 3813,
      "spected": 3814,
      "cord": 3815,
      "llen": 3816,
      "tremend": 3817,
      "cock": 3818,
      "string": 3819,
      "accompanied": 3820,
      "joke": 3821,
      "pile": 3822,
      "illa": 3823,
      "asing": 3824,
      "rescue": 3825,
      "chim": 3826,
      "breaking": 3827,
      "mystery": 3828,
      "iting": 3829,
      "nearest": 3830,
      "max": 3831,
      "ying": 3832,
      "thoroughly": 3833,
      "pine": 3834,
      "smaller": 3835,
      "rejo": 3836,
      "reat": 3837,
      "dull": 3838,
      "sought": 3839,
      "magn": 3840,
      "swall": 3841,
      "staff": 3842,
      "handkerchief": 3843,
      "bble": 3844,
      "aming": 3845,
      "iently": 3846,
      "buried": 3847,
      "apple": 3848,
      "rule": 3849,
      "society": 3850,
      "gret": 3851,
      "disco": 3852,
      "smart": 3853,
      "efforts": 3854,
      "points": 3855,
      "oga": 3856,
      "billie": 3857,
      "invited": 3858,
      "rover": 3859,
      "works": 3860,
      "bbing": 3861,
      "accep": 3862,
      "excellent": 3863,
      "influence": 3864,
      "members": 3865,
      "nora": 3866,
      "adventures": 3867,
      "ckets": 3868,
      "rolling": 3869,
      "creatures": 3870,
      "rison": 3871,
      "pounds": 3872,
      "ator": 3873,
      "states": 3874,
      "ilable": 3875,
      "absolutely": 3876,
      "twins": 3877,
      "taste": 3878,
      "vac": 3879,
      "immen": 3880,
      "fishing": 3881,
      "dish": 3882,
      "partly": 3883,
      "setting": 3884,
      "inquir": 3885,
      "wire": 3886,
      "bust": 3887,
      "prospect": 3888,
      "ladder": 3889,
      "lane": 3890,
      "minded": 3891,
      "plainly": 3892,
      "deeply": 3893,
      "snake": 3894,
      "gallop": 3895,
      "available": 3896,
      "sank": 3897,
      "infant": 3898,
      "gor": 3899,
      "grey": 3900,
      "page": 3901,
      "ome": 3902,
      "government": 3903,
      "parties": 3904,
      "surrounded": 3905,
      "tiger": 3906,
      "urged": 3907,
      "specta": 3908,
      "render": 3909,
      "everyone": 3910,
      "blame": 3911,
      "birth": 3912,
      "charged": 3913,
      "straw": 3914,
      "ashamed": 3915,
      "wreck": 3916,
      "heartily": 3917,
      "immense": 3918,
      "bath": 3919,
      "curiosity": 3920,
      "cip": 3921,
      "jun": 3922,
      "secure": 3923,
      "ara": 3924,
      "lodge": 3925,
      "venge": 3926,
      "smell": 3927,
      "jesus": 3928,
      "rice": 3929,
      "eliza": 3930,
      "ras": 3931,
      "cise": 3932,
      "bits": 3933,
      "numbers": 3934,
      "astonishment": 3935,
      ";\"": 3936,
      "apo": 3937,
      "dora": 3938,
      "counten": 3939,
      "everywhere": 3940,
      "united": 3941,
      "pace": 3942,
      "haul": 3943,
      "faced": 3944,
      "lumber": 3945,
      "belle": 3946,
      "heat": 3947,
      "hospital": 3948,
      "beds": 3949,
      "silk": 3950,
      "movement": 3951,
      "spani": 3952,
      "louis": 3953,
      "jung": 3954,
      "serge": 3955,
      "useful": 3956,
      "sharply": 3957,
      "crit": 3958,
      "intell": 3959,
      "kitty": 3960,
      "concluded": 3961,
      "fires": 3962,
      "ease": 3963,
      "heels": 3964,
      "sieur": 3965,
      "shone": 3966,
      "elder": 3967,
      "directed": 3968,
      "wilder": 3969,
      "kers": 3970,
      "reward": 3971,
      "visible": 3972,
      "justice": 3973,
      "spark": 3974,
      "Alright": 3975,
      "unexpected": 3976,
      "someone": 3977,
      "wald": 3978,
      "stable": 3979,
      "obtained": 3980,
      "cad": 3981,
      "whit": 3982,
      "pee": 3983,
      "sandy": 3984,
      "affairs": 3985,
      "meaning": 3986,
      "prize": 3987,
      "ende": 3988,
      "swiftly": 3989,
      "dart": 3990,
      "ender": 3991,
      "loving": 3992,
      "kingdom": 3993,
      "ative": 3994,
      "ida": 3995,
      "chang": 3996,
      "whistle": 3997,
      "admit": 3998,
      "promptly": 3999,
      "limb": 4000,
      "remon": 4001,
      "steep": 4002,
      "scare": 4003,
      "troubled": 4004,
      "intention": 4005,
      "labor": 4006,
      "owner": 4007,
      "bones": 4008,
      "pear": 4009,
      "christian": 4010,
      "dwell": 4011,
      "assistance": 4012,
      "blos": 4013,
      "startled": 4014,
      "clas": 4015,
      "arrive": 4016,
      "horri": 4017,
      "dign": 4018,
      "advis": 4019,
      "pardon": 4020,
      "poured": 4021,
      "presid": 4022,
      "spanish": 4023,
      "retorted": 4024,
      "victory": 4025,
      "painted": 4026,
      "gradually": 4027,
      "lessons": 4028,
      "dared": 4029,
      "neat": 4030,
      "monsieur": 4031,
      "riet": 4032,
      "grief": 4033,
      "flung": 4034,
      "scattered": 4035,
      "enced": 4036,
      "steadily": 4037,
      "supply": 4038,
      "belonged": 4039,
      "false": 4040,
      "nin": 4041,
      "expen": 4042,
      "summon": 4043,
      "hopes": 4044,
      "credit": 4045,
      "lunch": 4046,
      "recovered": 4047,
      "damon": 4048,
      "mysterious": 4049,
      "astonished": 4050,
      "weary": 4051,
      "lesson": 4052,
      "contemp": 4053,
      "violet": 4054,
      "kindness": 4055,
      "distin": 4056,
      "dent": 4057,
      "exha": 4058,
      "progress": 4059,
      "raven": 4060,
      "acquaint": 4061,
      "fed": 4062,
      "audi": 4063,
      "ignor": 4064,
      "column": 4065,
      "possessed": 4066,
      "persons": 4067,
      "suffered": 4068,
      "questioned": 4069,
      "earnestly": 4070,
      "dragon": 4071,
      "aloud": 4072,
      "eagle": 4073,
      "maiden": 4074,
      "faster": 4075,
      "haz": 4076,
      "tonight": 4077,
      "intense": 4078,
      "kiss": 4079,
      "jimmie": 4080,
      "naught": 4081,
      "xter": 4082,
      "sticks": 4083,
      "blew": 4084,
      "throwing": 4085,
      "herbert": 4086,
      "loc": 4087,
      "holy": 4088,
      "regret": 4089,
      "raged": 4090,
      "mail": 4091,
      "gazing": 4092,
      "aur": 4093,
      "madam": 4094,
      "cies": 4095,
      "gram": 4096,
      "puzzled": 4097,
      "mont": 4098,
      "disappointed": 4099,
      "consequence": 4100,
      "trembling": 4101,
      "exhaust": 4102,
      "shrie": 4103,
      "yell": 4104,
      "struggl": 4105,
      "tremendous": 4106,
      "explo": 4107,
      "cit": 4108,
      "marked": 4109,
      "recognized": 4110,
      "creek": 4111,
      "driving": 4112,
      "snu": 4113,
      "irish": 4114,
      "numer": 4115,
      "nic": 4116,
      "odd": 4117,
      "valuable": 4118,
      "ox": 4119,
      "level": 4120,
      "desp": 4121,
      "gaze": 4122,
      "horn": 4123,
      "daylight": 4124,
      "regarded": 4125,
      "trans": 4126,
      "mexican": 4127,
      "ality": 4128,
      "bearing": 4129,
      "attacked": 4130,
      "suffer": 4131,
      "wave": 4132,
      "reaching": 4133,
      "bbed": 4134,
      "principal": 4135,
      "proposed": 4136,
      "expedition": 4137,
      "Sure": 4138,
      "value": 4139,
      "eleven": 4140,
      "mentioned": 4141,
      "ave": 4142,
      "verse": 4143,
      "current": 4144,
      "crowded": 4145,
      "faithful": 4146,
      "edu": 4147,
      "estab": 4148,
      "obed": 4149,
      "pause": 4150,
      "finish": 4151,
      "breathe": 4152,
      "marine": 4153,
      "loves": 4154,
      "bris": 4155,
      "pointment": 4156,
      "fetch": 4157,
      "memory": 4158,
      "firmly": 4159,
      "ashes": 4160,
      "require": 4161,
      "ugly": 4162,
      "hop": 4163,
      "doubtless": 4164,
      "similar": 4165,
      "stup": 4166,
      "bis": 4167,
      "struggle": 4168,
      "capture": 4169,
      "fourth": 4170,
      "cons": 4171,
      "ulated": 4172,
      "removed": 4173,
      "hasn": 4174,
      "driver": 4175,
      "gods": 4176,
      "sending": 4177,
      "countenance": 4178,
      "mischief": 4179,
      "famous": 4180,
      "goods": 4181,
      "emper": 4182,
      "chosen": 4183,
      "igned": 4184,
      "landing": 4185,
      "southern": 4186,
      "increased": 4187,
      "tomorrow": 4188,
      "persu": 4189,
      "cannon": 4190,
      "pron": 4191,
      "priest": 4192,
      "events": 4193,
      "stiff": 4194,
      "jungle": 4195,
      "folk": 4196,
      "sergeant": 4197,
      "passion": 4198,
      "nights": 4199,
      "vessels": 4200,
      "conduct": 4201,
      "wy": 4202,
      "bodies": 4203,
      "inhabit": 4204,
      "aret": 4205,
      "swung": 4206,
      "ament": 4207,
      "blake": 4208,
      "tun": 4209,
      "roger": 4210,
      "Bye": 4211,
      "dev": 4212,
      "dragged": 4213,
      "discuss": 4214,
      "lantern": 4215,
      "successful": 4216,
      "branch": 4217,
      "caution": 4218,
      "reli": 4219,
      "scen": 4220,
      "responded": 4221,
      "scrat": 4222,
      "twink": 4223,
      "sevent": 4224,
      "map": 4225,
      "brilli": 4226,
      "und": 4227,
      "holes": 4228,
      "teddy": 4229,
      "appreci": 4230,
      "agreeable": 4231,
      "lap": 4232,
      "unted": 4233,
      "sher": 4234,
      "needs": 4235,
      "automobi": 4236,
      "america": 4237,
      "cheek": 4238,
      "pepper": 4239,
      "choice": 4240,
      "nervous": 4241,
      "dey": 4242,
      "ingu": 4243,
      "psy": 4244,
      "trad": 4245,
      "wret": 4246,
      "ethe": 4247,
      "gives": 4248,
      "richard": 4249,
      "rude": 4250,
      "del": 4251,
      "process": 4252,
      "30": 4253,
      "upstairs": 4254,
      "cts": 4255,
      "defend": 4256,
      "gates": 4257,
      "hum": 4258,
      "lish": 4259,
      "invest": 4260,
      "wedding": 4261,
      "grateful": 4262,
      "foo": 4263,
      "pant": 4264,
      "negro": 4265,
      "witch": 4266,
      "hin": 4267,
      "ctory": 4268,
      "Any": 4269,
      "athle": 4270,
      "heav": 4271,
      "raise": 4272,
      "dir": 4273,
      "glor": 4274,
      "powder": 4275,
      "hastened": 4276,
      "forgive": 4277,
      "mistaken": 4278,
      "torn": 4279,
      "emperor": 4280,
      "retired": 4281,
      "lamp": 4282,
      "gus": 4283,
      "toby": 4284,
      "tells": 4285,
      "team": 4286,
      "comment": 4287,
      "expressed": 4288,
      "ulu": 4289,
      "kinds": 4290,
      "banks": 4291,
      "nuts": 4292,
      "wre": 4293,
      "washed": 4294,
      "absence": 4295,
      "silly": 4296,
      "posit": 4297,
      "base": 4298,
      "nons": 4299,
      "oz": 4300,
      "gled": 4301,
      "christy": 4302,
      "contain": 4303,
      "lted": 4304,
      "knock": 4305,
      "closer": 4306,
      "strangers": 4307,
      "leaned": 4308,
      "forms": 4309,
      "proof": 4310,
      "acted": 4311,
      "ado": 4312,
      "rey": 4313,
      "confusion": 4314,
      "sta": 4315,
      "figures": 4316,
      "berry": 4317,
      "tide": 4318,
      "cries": 4319,
      "peas": 4320,
      "patch": 4321,
      "delightful": 4322,
      "tiv": 4323,
      "velo": 4324,
      "fr": 4325,
      "ski": 4326,
      "jam": 4327,
      "squirrel": 4328,
      "quo": 4329,
      "satur": 4330,
      "scri": 4331,
      "slightly": 4332,
      "otter": 4333,
      "stage": 4334,
      "becoming": 4335,
      "directions": 4336,
      "yield": 4337,
      "ril": 4338,
      "arrows": 4339,
      "missing": 4340,
      "cob": 4341,
      "stopping": 4342,
      "ency": 4343,
      "orig": 4344,
      "provided": 4345,
      "waist": 4346,
      "rele": 4347,
      "stem": 4348,
      "gift": 4349,
      "leaf": 4350,
      "communic": 4351,
      "000": 4352,
      "bess": 4353,
      "laying": 4354,
      "swell": 4355,
      "dain": 4356,
      "nation": 4357,
      "tan": 4358,
      "shif": 4359,
      "stain": 4360,
      "mild": 4361,
      "minister": 4362,
      "katy": 4363,
      "mast": 4364,
      "trade": 4365,
      "ism": 4366,
      "patiently": 4367,
      "rendered": 4368,
      "railroad": 4369,
      "brer": 4370,
      "geon": 4371,
      "shield": 4372,
      "desk": 4373,
      "provisions": 4374,
      "centre": 4375,
      ".'\"": 4376,
      "obeyed": 4377,
      "sunshine": 4378,
      "flesh": 4379,
      "wishes": 4380,
      "ully": 4381,
      "kim": 4382,
      "ulous": 4383,
      "chi": 4384,
      "convin": 4385,
      "breeze": 4386,
      "midnight": 4387,
      "heavily": 4388,
      "waste": 4389,
      "rushing": 4390,
      "sale": 4391,
      "inclined": 4392,
      "tables": 4393,
      "salt": 4394,
      "president": 4395,
      "tickets": 4396,
      "mater": 4397,
      "dal": 4398,
      "izing": 4399,
      "assa": 4400,
      "ranch": 4401,
      "admi": 4402,
      "origin": 4403,
      "ilton": 4404,
      "meantime": 4405,
      "porch": 4406,
      "waved": 4407,
      "whist": 4408,
      "term": 4409,
      "honey": 4410,
      "rome": 4411,
      "messenger": 4412,
      "12": 4413,
      "anna": 4414,
      "terms": 4415,
      "tions": 4416,
      "coach": 4417,
      "mount": 4418,
      "bobby": 4419,
      "Good": 4420,
      "wol": 4421,
      "francis": 4422,
      "dying": 4423,
      "stole": 4424,
      "ticket": 4425,
      "shouting": 4426,
      "jon": 4427,
      "paw": 4428,
      "warned": 4429,
      "vict": 4430,
      "contro": 4431,
      "dining": 4432,
      "tear": 4433,
      "cleared": 4434,
      "bother": 4435,
      "oft": 4436,
      "oned": 4437,
      "russi": 4438,
      "marriage": 4439,
      "feathers": 4440,
      "ponies": 4441,
      "bowed": 4442,
      "spr": 4443,
      "thed": 4444,
      "mic": 4445,
      "rated": 4446,
      "member": 4447,
      "correct": 4448,
      "hoo": 4449,
      "pound": 4450,
      "inch": 4451,
      "leon": 4452,
      "scared": 4453,
      "entertain": 4454,
      "bears": 4455,
      "There": 4456,
      "sult": 4457,
      "spur": 4458,
      "phone": 4459,
      "shortly": 4460,
      "beard": 4461,
      "sugar": 4462,
      "bite": 4463,
      "curtain": 4464,
      "joel": 4465,
      "fever": 4466,
      "pless": 4467,
      "ounce": 4468,
      "pac": 4469,
      "inches": 4470,
      "pure": 4471,
      "cared": 4472,
      "elizabeth": 4473,
      "nap": 4474,
      "handle": 4475,
      "ldom": 4476,
      "desired": 4477,
      "discovery": 4478,
      "pulling": 4479,
      "asted": 4480,
      "frame": 4481,
      "secon": 4482,
      "council": 4483,
      "active": 4484,
      "accordingly": 4485,
      "firing": 4486,
      "platform": 4487,
      "phys": 4488,
      "organ": 4489,
      "concerned": 4490,
      "ague": 4491,
      "stag": 4492,
      "hest": 4493,
      "vies": 4494,
      "europe": 4495,
      "indu": 4496,
      "beasts": 4497,
      "flor": 4498,
      "tour": 4499,
      "loaded": 4500,
      "inder": 4501,
      "pursuit": 4502,
      "ided": 4503,
      "peril": 4504,
      "reddy": 4505,
      "gla": 4506,
      "anda": 4507,
      "bride": 4508,
      "retreat": 4509,
      "stolen": 4510,
      "medic": 4511,
      "disturbed": 4512,
      "gang": 4513,
      "refuse": 4514,
      "nonsense": 4515,
      "duck": 4516,
      "sche": 4517,
      "hunters": 4518,
      "laddie": 4519,
      "gig": 4520,
      "shoe": 4521,
      "amaze": 4522,
      "importance": 4523,
      "Ye": 4524,
      "hild": 4525,
      "nay": 4526,
      "patri": 4527,
      "struction": 4528,
      "nigh": 4529,
      "miserable": 4530,
      "ev": 4531,
      "fest": 4532,
      "comed": 4533,
      "rels": 4534,
      "cutting": 4535,
      "nancy": 4536,
      "occasionally": 4537,
      "wan": 4538,
      "Yeah": 4539,
      "milit": 4540,
      "aks": 4541,
      "solid": 4542,
      "rec": 4543,
      "relat": 4544,
      "rily": 4545,
      "hoping": 4546,
      "kened": 4547,
      "lift": 4548,
      "peep": 4549,
      "skir": 4550,
      "accepted": 4551,
      "pour": 4552,
      "sore": 4553,
      "witness": 4554,
      "gravely": 4555,
      "vigor": 4556,
      "nick": 4557,
      "anno": 4558,
      "darrin": 4559,
      "lace": 4560,
      "previous": 4561,
      "western": 4562,
      "spell": 4563,
      "innocent": 4564,
      "passengers": 4565,
      "grandma": 4566,
      "execut": 4567,
      "rowed": 4568,
      "pend": 4569,
      "restaur": 4570,
      "fles": 4571,
      "flashed": 4572,
      "islands": 4573,
      "dawn": 4574,
      "anchor": 4575,
      "wick": 4576,
      "useless": 4577,
      "superior": 4578,
      "bullet": 4579,
      "recover": 4580,
      "stupid": 4581,
      "zes": 4582,
      "decide": 4583,
      "ragged": 4584,
      "guil": 4585,
      "merchant": 4586,
      "example": 4587,
      "suspect": 4588,
      "frequently": 4589,
      "mut": 4590,
      "earl": 4591,
      "northern": 4592,
      "venture": 4593,
      "Let": 4594,
      "explan": 4595,
      "lightning": 4596,
      "bundle": 4597,
      "staying": 4598,
      "amid": 4599,
      "practice": 4600,
      "mc": 4601,
      "amen": 4602,
      "unknown": 4603,
      "ller": 4604,
      "seldom": 4605,
      "phron": 4606,
      "chose": 4607,
      "stronger": 4608,
      "bbs": 4609,
      "fid": 4610,
      "decl": 4611,
      "awfully": 4612,
      "tayoga": 4613,
      "oars": 4614,
      "17": 4615,
      "rs": 4616,
      "concl": 4617,
      "sympathy": 4618,
      "itor": 4619,
      "afford": 4620,
      "saturday": 4621,
      "shooting": 4622,
      "tribe": 4623,
      "gil": 4624,
      "shing": 4625,
      "doorway": 4626,
      "knee": 4627,
      "hearty": 4628,
      "slid": 4629,
      "forehead": 4630,
      "marks": 4631,
      "compar": 4632,
      "horror": 4633,
      "leaning": 4634,
      "brilliant": 4635,
      "bunch": 4636,
      "thief": 4637,
      "exclam": 4638,
      "wrapped": 4639,
      "goose": 4640,
      "boxes": 4641,
      "evidence": 4642,
      "diamond": 4643,
      "diana": 4644,
      "cotton": 4645,
      "endeav": 4646,
      "ware": 4647,
      "rosy": 4648,
      "amazement": 4649,
      "chain": 4650,
      "succeed": 4651,
      "inven": 4652,
      "unusual": 4653,
      "submarine": 4654,
      "magnific": 4655,
      "recei": 4656,
      "flame": 4657,
      "hearted": 4658,
      "beaten": 4659,
      "ew": 4660,
      "rew": 4661,
      "cage": 4662,
      "moder": 4663,
      "chimney": 4664,
      "phronsie": 4665,
      "informed": 4666,
      "distingu": 4667,
      "tops": 4668,
      "az": 4669,
      "wha": 4670,
      "automobile": 4671,
      "longed": 4672,
      "capital": 4673,
      "whar": 4674,
      "elf": 4675,
      "descended": 4676,
      "slo": 4677,
      "dollar": 4678,
      "gown": 4679,
      "exceed": 4680,
      "Great": 4681,
      "hundreds": 4682,
      "support": 4683,
      "convinced": 4684,
      "intellig": 4685,
      "india": 4686,
      "grounds": 4687,
      "arse": 4688,
      "park": 4689,
      "argu": 4690,
      "seriously": 4691,
      "bigger": 4692,
      "cents": 4693,
      "brow": 4694,
      "helpless": 4695,
      "germans": 4696,
      "alas": 4697,
      "unhappy": 4698,
      "flood": 4699,
      "slave": 4700,
      "severe": 4701,
      "vering": 4702,
      "danced": 4703,
      "toad": 4704,
      "jones": 4705,
      "washington": 4706,
      "turns": 4707,
      "curly": 4708,
      "limit": 4709,
      "peggy": 4710,
      "perio": 4711,
      "troubles": 4712,
      "chances": 4713,
      "pistol": 4714,
      "refer": 4715,
      "foe": 4716,
      "beheld": 4717,
      "counted": 4718,
      "hump": 4719,
      "quarrel": 4720,
      "spaniards": 4721,
      "hawk": 4722,
      "crazy": 4723,
      "oul": 4724,
      "sacri": 4725,
      "skins": 4726,
      "theater": 4727,
      "seats": 4728,
      "needn": 4729,
      "lively": 4730,
      "ancient": 4731,
      "tow": 4732,
      "growled": 4733,
      "coward": 4734,
      "admiration": 4735,
      "mates": 4736,
      "dock": 4737,
      "seconds": 4738,
      "colour": 4739,
      "mole": 4740,
      "desert": 4741,
      "comrade": 4742,
      "suspicion": 4743,
      "farewell": 4744,
      "lamb": 4745,
      "gathering": 4746,
      "kate": 4747,
      "staring": 4748,
      "utterly": 4749,
      "alous": 4750,
      "prov": 4751,
      "thankful": 4752,
      "fee": 4753,
      "inju": 4754,
      "soo": 4755,
      "rebe": 4756,
      "syl": 4757,
      "serving": 4758,
      "continue": 4759,
      "harriet": 4760,
      "resumed": 4761,
      "departure": 4762,
      "guards": 4763,
      "conven": 4764,
      "berries": 4765,
      "knot": 4766,
      "shock": 4767,
      "rod": 4768,
      "pel": 4769,
      "helping": 4770,
      "puff": 4771,
      "lers": 4772,
      "ented": 4773,
      "blowing": 4774,
      "splash": 4775,
      "cases": 4776,
      "invitation": 4777,
      "asso": 4778,
      "moreover": 4779,
      "martha": 4780,
      "glory": 4781,
      "sailing": 4782,
      "slaves": 4783,
      "awoke": 4784,
      "iss": 4785,
      "suffering": 4786,
      "wandered": 4787,
      "extent": 4788,
      "snap": 4789,
      "equally": 4790,
      "visitors": 4791,
      "sails": 4792,
      "preparations": 4793,
      "china": 4794,
      "exist": 4795,
      "capable": 4796,
      "uniform": 4797,
      "chums": 4798,
      "inn": 4799,
      "itch": 4800,
      "libr": 4801,
      "pota": 4802,
      "janet": 4803,
      "commenced": 4804,
      "disturb": 4805,
      "thousands": 4806,
      "liberty": 4807,
      "ix": 4808,
      "lind": 4809,
      "guessed": 4810,
      "acquainted": 4811,
      "itable": 4812,
      "chased": 4813,
      "tracks": 4814,
      "steel": 4815,
      "molly": 4816,
      "suspected": 4817,
      "ander": 4818,
      "appointed": 4819,
      "massa": 4820,
      "poet": 4821,
      "kings": 4822,
      "inclu": 4823,
      "volu": 4824,
      "posing": 4825,
      "yonder": 4826,
      "calls": 4827,
      "shade": 4828,
      "worried": 4829,
      "relieved": 4830,
      "admiral": 4831,
      "tony": 4832,
      "freed": 4833,
      "style": 4834,
      "brain": 4835,
      "tents": 4836,
      "doubted": 4837,
      "seas": 4838,
      "licate": 4839,
      "waving": 4840,
      "visited": 4841,
      "oswald": 4842,
      "addressed": 4843,
      "chel": 4844,
      "weapon": 4845,
      "aut": 4846,
      "ics": 4847,
      "earli": 4848,
      "distri": 4849,
      "inventor": 4850,
      "jar": 4851,
      "arily": 4852,
      "uttering": 4853,
      "extremely": 4854,
      "trial": 4855,
      "AM": 4856,
      "mous": 4857,
      "sacrifi": 4858,
      "harold": 4859,
      "rung": 4860,
      "mood": 4861,
      "decis": 4862,
      "pea": 4863,
      "vas": 4864,
      "cali": 4865,
      "chairs": 4866,
      "foreign": 4867,
      "wherever": 4868,
      "eyed": 4869,
      "inking": 4870,
      "tricks": 4871,
      "addition": 4872,
      "jah": 4873,
      "iest": 4874,
      "daughters": 4875,
      "sadly": 4876,
      "duties": 4877,
      "daisy": 4878,
      "likes": 4879,
      "examined": 4880,
      "drum": 4881,
      "highest": 4882,
      "oil": 4883,
      "traveling": 4884,
      "catching": 4885,
      "score": 4886,
      "abrup": 4887,
      "lulu": 4888,
      "turtle": 4889,
      "elean": 4890,
      "mustn": 4891,
      "gment": 4892,
      "fairies": 4893,
      "flour": 4894,
      "slightest": 4895,
      "oop": 4896,
      "murder": 4897,
      "depend": 4898,
      "date": 4899,
      ".,": 4900,
      "entering": 4901,
      "permission": 4902,
      "belt": 4903,
      "rud": 4904,
      "sau": 4905,
      "drowned": 4906,
      "acquaintance": 4907,
      "ulf": 4908,
      "nia": 4909,
      "dirty": 4910,
      "disappointment": 4911,
      "savages": 4912,
      "nit": 4913,
      "meg": 4914,
      "allen": 4915,
      "oy": 4916,
      "stove": 4917,
      "bully": 4918,
      "hesitated": 4919,
      "produced": 4920,
      "gie": 4921,
      "quit": 4922,
      "betray": 4923,
      "moonlight": 4924,
      "beating": 4925,
      "seve": 4926,
      "alarmed": 4927,
      "contri": 4928,
      "whip": 4929,
      "numerous": 4930,
      "hans": 4931,
      "learning": 4932,
      "fitted": 4933,
      "resting": 4934,
      "bessie": 4935,
      "lightly": 4936,
      "crossing": 4937,
      "flames": 4938,
      "compelled": 4939,
      "althy": 4940,
      "harder": 4941,
      "elephants": 4942,
      "stored": 4943,
      "spear": 4944,
      "clothing": 4945,
      "incident": 4946,
      "merriwell": 4947,
      "fic": 4948,
      "charles": 4949,
      "glasses": 4950,
      "military": 4951,
      "meas": 4952,
      "clerk": 4953,
      "11": 4954,
      "accompany": 4955,
      "vanished": 4956,
      "friendship": 4957,
      "block": 4958,
      "sah": 4959,
      "iny": 4960,
      "medicine": 4961,
      "eleanor": 4962,
      "tes": 4963,
      "robe": 4964,
      "favorite": 4965,
      "sters": 4966,
      "disgust": 4967,
      "deserted": 4968,
      "aven": 4969,
      "dale": 4970,
      "union": 4971,
      "apt": 4972,
      "happens": 4973,
      "powers": 4974,
      "behold": 4975,
      "ceremon": 4976,
      "rejoic": 4977,
      "parti": 4978,
      "advised": 4979,
      "widow": 4980,
      "blanket": 4981,
      "ina": 4982,
      "personal": 4983,
      "imper": 4984,
      "cture": 4985,
      "bump": 4986,
      "clearly": 4987,
      "tag": 4988,
      "scorn": 4989,
      "roads": 4990,
      "ckle": 4991,
      "blankets": 4992,
      "gir": 4993,
      "bone": 4994,
      "angrily": 4995,
      "embar": 4996,
      "divided": 4997,
      "halted": 4998,
      "household": 4999,
      "utmost": 5000,
      "prayer": 5001,
      "daily": 5002,
      "rers": 5003,
      "engage": 5004,
      "ribb": 5005,
      "grove": 5006,
      "hence": 5007,
      "library": 5008,
      "contained": 5009,
      "percy": 5010,
      "hibit": 5011,
      "prair": 5012,
      "rout": 5013,
      "reported": 5014,
      "dutch": 5015,
      "glimp": 5016,
      "hermit": 5017,
      "cream": 5018,
      "drif": 5019,
      "thomas": 5020,
      "reas": 5021,
      "swimming": 5022,
      "screamed": 5023,
      "defi": 5024,
      "silently": 5025,
      "pockets": 5026,
      "shouts": 5027,
      "heed": 5028,
      "shy": 5029,
      "stores": 5030,
      "ropes": 5031,
      "shan": 5032,
      "happily": 5033,
      "devil": 5034,
      "compli": 5035,
      "dried": 5036,
      "gladly": 5037,
      "rese": 5038,
      "guilty": 5039,
      "plot": 5040,
      "falls": 5041,
      "pud": 5042,
      "attached": 5043,
      "nar": 5044,
      "flushed": 5045,
      "tries": 5046,
      "striking": 5047,
      "alongside": 5048,
      "contented": 5049,
      "wealth": 5050,
      "yelled": 5051,
      "reader": 5052,
      "shots": 5053,
      "dismay": 5054,
      "dressing": 5055,
      "bable": 5056,
      "axe": 5057,
      "rifles": 5058,
      "lately": 5059,
      "loudly": 5060,
      "saving": 5061,
      "patro": 5062,
      "wilderness": 5063,
      "rant": 5064,
      "hector": 5065,
      "poison": 5066,
      "demon": 5067,
      "finite": 5068,
      "errand": 5069,
      "unfortunate": 5070,
      "games": 5071,
      "ventured": 5072,
      "garments": 5073,
      "dreams": 5074,
      "period": 5075,
      "burg": 5076,
      "leather": 5077,
      "audience": 5078,
      "izon": 5079,
      "Goodbye": 5080,
      "greeted": 5081,
      "marg": 5082,
      "coats": 5083,
      "shows": 5084,
      "jumping": 5085,
      "thanked": 5086,
      "folded": 5087,
      "sixty": 5088,
      "calmly": 5089,
      "launce": 5090,
      "rah": 5091,
      "jealous": 5092,
      "egg": 5093,
      "gee": 5094,
      "downstairs": 5095,
      "zar": 5096,
      "wart": 5097,
      "pump": 5098,
      "suggestion": 5099,
      "25": 5100,
      "outer": 5101,
      "sheet": 5102,
      "virgin": 5103,
      "movies": 5104,
      "quant": 5105,
      "floating": 5106,
      "exhausted": 5107,
      "oli": 5108,
      "turkey": 5109,
      "rubbed": 5110,
      "thic": 5111,
      "costu": 5112,
      "conclusion": 5113,
      "amused": 5114,
      "lux": 5115,
      "laura": 5116,
      "commit": 5117,
      "stands": 5118,
      "dishes": 5119,
      "paint": 5120,
      "shu": 5121,
      "quet": 5122,
      "blessed": 5123,
      "marian": 5124,
      "infantry": 5125,
      "delicate": 5126,
      "roses": 5127,
      "separated": 5128,
      "electric": 5129,
      "weapons": 5130,
      "edgar": 5131,
      "nold": 5132,
      "throne": 5133,
      "bells": 5134,
      "blows": 5135,
      "sack": 5136,
      "remarkable": 5137,
      "hamilton": 5138,
      "direct": 5139,
      "punishment": 5140,
      "newspa": 5141,
      "shadows": 5142,
      "metho": 5143,
      "cloak": 5144,
      "charming": 5145,
      "glorious": 5146,
      "popular": 5147,
      "wheels": 5148,
      "'.": 5149,
      "enthusiasm": 5150,
      "wolves": 5151,
      "type": 5152,
      "candle": 5153,
      "modest": 5154,
      "presents": 5155,
      "stump": 5156,
      "related": 5157,
      "energy": 5158,
      "sally": 5159,
      "degree": 5160,
      "santa": 5161,
      "description": 5162,
      "kathle": 5163,
      "homes": 5164,
      "emma": 5165,
      "kathleen": 5166,
      "dles": 5167,
      "natured": 5168,
      "bows": 5169,
      "16": 5170,
      "cautiously": 5171,
      "gale": 5172,
      "tid": 5173,
      "cakes": 5174,
      "slope": 5175,
      "disgu": 5176,
      "restaurant": 5177,
      "tical": 5178,
      "assembled": 5179,
      "forever": 5180,
      "unning": 5181,
      "ano": 5182,
      "feli": 5183,
      "easier": 5184,
      "slain": 5185,
      "inj": 5186,
      "margaret": 5187,
      "snat": 5188,
      "burden": 5189,
      "conceal": 5190,
      "ressed": 5191,
      "stat": 5192,
      "candy": 5193,
      "fen": 5194,
      "adop": 5195,
      "tier": 5196,
      "...": 5197,
      "prep": 5198,
      "disci": 5199,
      "keeps": 5200,
      "cows": 5201,
      "drun": 5202,
      "flies": 5203,
      "scold": 5204,
      "mixed": 5205,
      "wen": 5206,
      "cran": 5207,
      "halt": 5208,
      "champ": 5209,
      "explanation": 5210,
      "bald": 5211,
      "dotty": 5212,
      "rul": 5213,
      "repro": 5214,
      "ceci": 5215,
      "timber": 5216,
      "dates": 5217,
      "arched": 5218,
      "gracious": 5219,
      "measure": 5220,
      "thos": 5221,
      "guardian": 5222,
      "brand": 5223,
      "youngest": 5224,
      "concealed": 5225,
      "terribly": 5226,
      "departed": 5227,
      "rating": 5228,
      "invent": 5229,
      "notes": 5230,
      "threatened": 5231,
      "dus": 5232,
      "disposed": 5233,
      "resid": 5234,
      "lets": 5235,
      "yourselves": 5236,
      "bedroom": 5237,
      "impul": 5238,
      "scott": 5239,
      "hurrying": 5240,
      "wholly": 5241,
      "services": 5242,
      "sink": 5243,
      "dreamed": 5244,
      "horrid": 5245,
      "constant": 5246,
      "telephone": 5247,
      "mabel": 5248,
      "exhibit": 5249,
      "dug": 5250,
      "angle": 5251,
      "rocky": 5252,
      "rescu": 5253,
      "impression": 5254,
      "magnificent": 5255,
      "launcelot": 5256,
      "ora": 5257,
      "En": 5258,
      "vern": 5259,
      "angel": 5260,
      "male": 5261,
      "sees": 5262,
      "views": 5263,
      "belief": 5264,
      "destroyed": 5265,
      "civil": 5266,
      "baxter": 5267,
      "described": 5268,
      "parted": 5269,
      "hello": 5270,
      "oux": 5271,
      "observ": 5272,
      "borne": 5273,
      "wisdom": 5274,
      "drank": 5275,
      "horns": 5276,
      "flights": 5277,
      "visitor": 5278,
      "beha": 5279,
      "accomplished": 5280,
      "ible": 5281,
      "chers": 5282,
      "raising": 5283,
      "aband": 5284,
      "attempted": 5285,
      "confident": 5286,
      "enor": 5287,
      "sober": 5288,
      "locks": 5289,
      "spin": 5290,
      "calcul": 5291,
      "packed": 5292,
      "market": 5293,
      "afri": 5294,
      "fy": 5295,
      "rival": 5296,
      "highly": 5297,
      "devoted": 5298,
      "thread": 5299,
      "fornia": 5300,
      "attended": 5301,
      "iture": 5302,
      "bluff": 5303,
      "midship": 5304,
      "atively": 5305,
      "mock": 5306,
      "extended": 5307,
      "llers": 5308,
      "acknow": 5309,
      "crash": 5310,
      "tore": 5311,
      "nephe": 5312,
      "shri": 5313,
      "bol": 5314,
      "jennie": 5315,
      "reu": 5316,
      "iel": 5317,
      "remaining": 5318,
      "fearful": 5319,
      "injured": 5320,
      "estate": 5321,
      "alike": 5322,
      "ify": 5323,
      "ferences": 5324,
      "ager": 5325,
      "searching": 5326,
      "victim": 5327,
      "coon": 5328,
      "proble": 5329,
      "secured": 5330,
      "indul": 5331,
      "ranks": 5332,
      "exception": 5333,
      "maker": 5334,
      "spy": 5335,
      "annie": 5336,
      "pursued": 5337,
      "authority": 5338,
      "aust": 5339,
      "acting": 5340,
      "revolver": 5341,
      "sued": 5342,
      "expecting": 5343,
      "annoy": 5344,
      "aver": 5345,
      "tives": 5346,
      "iii": 5347,
      "sled": 5348,
      "hazel": 5349,
      "rable": 5350,
      "whirl": 5351,
      "negle": 5352,
      "strongly": 5353,
      "emotion": 5354,
      "articles": 5355,
      "glen": 5356,
      "bac": 5357,
      "ium": 5358,
      "contents": 5359,
      "foun": 5360,
      "sour": 5361,
      "fain": 5362,
      "connected": 5363,
      "mingled": 5364,
      "cele": 5365,
      "quis": 5366,
      "penny": 5367,
      "advancing": 5368,
      "greg": 5369,
      "crou": 5370,
      "ppers": 5371,
      "ifully": 5372,
      "perform": 5373,
      "pitch": 5374,
      "timid": 5375,
      "gallant": 5376,
      "gifts": 5377,
      "rows": 5378,
      "barrel": 5379,
      "cable": 5380,
      "permit": 5381,
      "guy": 5382,
      "lian": 5383,
      "tossed": 5384,
      "shep": 5385,
      "balls": 5386,
      "jonas": 5387,
      "Enjoy": 5388,
      "jose": 5389,
      "prepare": 5390,
      "hated": 5391,
      "wink": 5392,
      "dash": 5393,
      "sentence": 5394,
      "praise": 5395,
      "manners": 5396,
      "garrison": 5397,
      "carl": 5398,
      "cheerfully": 5399,
      "education": 5400,
      "sul": 5401,
      "series": 5402,
      "mpson": 5403,
      "dresses": 5404,
      "despite": 5405,
      "nam": 5406,
      "careless": 5407,
      "enchant": 5408,
      "sleepy": 5409,
      "donkey": 5410,
      "frost": 5411,
      "ites": 5412,
      "claus": 5413,
      "beaver": 5414,
      "abled": 5415,
      "dropping": 5416,
      "chuckled": 5417,
      "gorge": 5418,
      "cia": 5419,
      "runs": 5420,
      "deb": 5421,
      "unpleasant": 5422,
      "properly": 5423,
      "od": 5424,
      "songs": 5425,
      "coal": 5426,
      "trim": 5427,
      "johnny": 5428,
      "perceived": 5429,
      "holl": 5430,
      "neighbors": 5431,
      "collected": 5432,
      "wearing": 5433,
      "deliver": 5434,
      "forces": 5435,
      "spoil": 5436,
      "sammy": 5437,
      "dignity": 5438,
      "zer": 5439,
      "backs": 5440,
      "letting": 5441,
      "fury": 5442,
      "reuben": 5443,
      "eric": 5444,
      "warn": 5445,
      "wishing": 5446,
      "19": 5447,
      "swords": 5448,
      "protect": 5449,
      "horizon": 5450,
      "experi": 5451,
      "salut": 5452,
      "speedily": 5453,
      "apples": 5454,
      "exercise": 5455,
      "recogn": 5456,
      "gloom": 5457,
      "trained": 5458,
      "celebr": 5459,
      "eder": 5460,
      "laws": 5461,
      "constantly": 5462,
      "seed": 5463,
      "stroke": 5464,
      "phy": 5465,
      "instructions": 5466,
      "toy": 5467,
      "qui": 5468,
      "daring": 5469,
      "tightly": 5470,
      "New": 5471,
      "cig": 5472,
      "permitted": 5473,
      "selfish": 5474,
      "survey": 5475,
      "villain": 5476,
      "bags": 5477,
      "whence": 5478,
      "intim": 5479,
      "pillow": 5480,
      "protested": 5481,
      "hare": 5482,
      "roared": 5483,
      "trace": 5484,
      "drag": 5485,
      "brisk": 5486,
      "forbid": 5487,
      "contrary": 5488,
      "inhabitants": 5489,
      "indi": 5490,
      "shells": 5491,
      "exclamation": 5492,
      "sages": 5493,
      "deed": 5494,
      "clut": 5495,
      "warrior": 5496,
      "defence": 5497,
      "horrible": 5498,
      "upset": 5499,
      "gam": 5500,
      "cken": 5501,
      "dolly": 5502,
      "rules": 5503,
      "bars": 5504,
      "fog": 5505,
      "louise": 5506,
      "thoughtfully": 5507,
      "awakened": 5508,
      "bitterly": 5509,
      "aries": 5510,
      "distress": 5511,
      "logs": 5512,
      "virtu": 5513,
      "drinking": 5514,
      "cooking": 5515,
      "glancing": 5516,
      "awk": 5517,
      "eighteen": 5518,
      "gratitude": 5519,
      "naughty": 5520,
      "picking": 5521,
      "kettle": 5522,
      "sall": 5523,
      "rein": 5524,
      "reda": 5525,
      "preparing": 5526,
      "monster": 5527,
      "wels": 5528,
      "grasped": 5529,
      "San": 5530,
      "aked": 5531,
      "shirt": 5532,
      "prophe": 5533,
      "hastings": 5534,
      "solit": 5535,
      "airship": 5536,
      "grasp": 5537,
      "parlor": 5538,
      "towns": 5539,
      "In": 5540,
      "tels": 5541,
      "losing": 5542,
      "zard": 5543,
      "mee": 5544,
      "ads": 5545,
      "sly": 5546,
      "assure": 5547,
      "kar": 5548,
      "planned": 5549,
      "cameron": 5550,
      "robber": 5551,
      "engineer": 5552,
      "blown": 5553,
      "buildings": 5554,
      "dwar": 5555,
      "hush": 5556,
      "bible": 5557,
      "absent": 5558,
      "acy": 5559,
      "crab": 5560,
      "orch": 5561,
      "deadly": 5562,
      "develo": 5563,
      "bil": 5564,
      "sixteen": 5565,
      "cats": 5566,
      "completed": 5567,
      "control": 5568,
      "obst": 5569,
      "wandering": 5570,
      "reade": 5571,
      "aga": 5572,
      "glow": 5573,
      "las": 5574,
      "remarks": 5575,
      "bullets": 5576,
      "titude": 5577,
      "loyal": 5578,
      "ults": 5579,
      "confeder": 5580,
      "echoed": 5581,
      "bou": 5582,
      "overcome": 5583,
      "aer": 5584,
      "randy": 5585,
      "raft": 5586,
      "apolo": 5587,
      "experienced": 5588,
      "regarding": 5589,
      "august": 5590,
      "decidedly": 5591,
      "suffici": 5592,
      "lend": 5593,
      "collar": 5594,
      "ethel": 5595,
      "scheme": 5596,
      "istic": 5597,
      "vet": 5598,
      "crest": 5599,
      "nephew": 5600,
      "ku": 5601,
      "congrat": 5602,
      "furious": 5603,
      "benson": 5604,
      "fountain": 5605,
      "climbing": 5606,
      "mered": 5607,
      "cunning": 5608,
      "concerning": 5609,
      "furniture": 5610,
      "weren": 5611,
      "prairie": 5612,
      "final": 5613,
      "violent": 5614,
      "trum": 5615,
      "dolls": 5616,
      "purple": 5617,
      "resistance": 5618,
      "battery": 5619,
      "plunged": 5620,
      "beck": 5621,
      "harbor": 5622,
      "brad": 5623,
      "bench": 5624,
      "slender": 5625,
      "encou": 5626,
      "ident": 5627,
      "deta": 5628,
      "rugged": 5629,
      "vile": 5630,
      "jaw": 5631,
      "footsteps": 5632,
      "archie": 5633,
      "raw": 5634,
      "destruction": 5635,
      "upward": 5636,
      "investig": 5637,
      "saint": 5638,
      "commission": 5639,
      "carpet": 5640,
      "throughout": 5641,
      "interval": 5642,
      "hull": 5643,
      "foes": 5644,
      "fuss": 5645,
      "March": 5646,
      "lack": 5647,
      "amusement": 5648,
      "brass": 5649,
      "ulation": 5650,
      "ada": 5651,
      "groaned": 5652,
      "seeking": 5653,
      "ideas": 5654,
      "associ": 5655,
      "ability": 5656,
      "introduced": 5657,
      "kitten": 5658,
      "grandpa": 5659,
      "cellar": 5660,
      "pent": 5661,
      "preferences": 5662,
      "sweep": 5663,
      "movements": 5664,
      "fiercely": 5665,
      "roots": 5666,
      "stud": 5667,
      "boards": 5668,
      "fanny": 5669,
      "alex": 5670,
      "bang": 5671,
      "fears": 5672,
      "acle": 5673,
      "daw": 5674,
      "apartment": 5675,
      "boston": 5676,
      "features": 5677,
      "glimpse": 5678,
      "benefit": 5679,
      "baggage": 5680,
      "employed": 5681,
      "travelling": 5682,
      "shud": 5683,
      "babies": 5684,
      "aches": 5685,
      "tled": 5686,
      "respec": 5687,
      "perple": 5688,
      "attracted": 5689,
      "glit": 5690,
      "indif": 5691,
      "navy": 5692,
      "smoking": 5693,
      "hedge": 5694,
      "snapped": 5695,
      "forman": 5696,
      "moor": 5697,
      "winds": 5698,
      "examination": 5699,
      "realize": 5700,
      "wretched": 5701,
      "plants": 5702,
      "instin": 5703,
      "cort": 5704,
      "schoon": 5705,
      "region": 5706,
      "delivered": 5707,
      "dwarf": 5708,
      "aroused": 5709,
      "maud": 5710,
      "50": 5711,
      "layover": 5712,
      "slee": 5713,
      "warmly": 5714,
      "conscience": 5715,
      "enormous": 5716,
      "rho": 5717,
      "eness": 5718,
      "tales": 5719,
      "probable": 5720,
      "marie": 5721,
      "treas": 5722,
      "exciting": 5723,
      "cyril": 5724,
      "artill": 5725,
      "possibility": 5726,
      "hunger": 5727,
      "crawled": 5728,
      "convey": 5729,
      "border": 5730,
      "iot": 5731,
      "blaze": 5732,
      "humph": 5733,
      "fere": 5734,
      "balcon": 5735,
      "decor": 5736,
      "sunset": 5737,
      "jacob": 5738,
      "reput": 5739,
      "ading": 5740,
      "deeds": 5741,
      "grie": 5742,
      "cliffs": 5743,
      "pris": 5744,
      "lowered": 5745,
      "gardens": 5746,
      "sufficiently": 5747,
      "lawn": 5748,
      "albert": 5749,
      "darted": 5750,
      "damage": 5751,
      "families": 5752,
      "humor": 5753,
      "larry": 5754,
      "artillery": 5755,
      "bron": 5756,
      "wounds": 5757,
      "wildly": 5758,
      "remains": 5759,
      "canoes": 5760,
      "abruptly": 5761,
      "slu": 5762,
      "deare": 5763,
      "clown": 5764,
      "necessity": 5765,
      "selected": 5766,
      "isa": 5767,
      "plains": 5768,
      "siege": 5769,
      "lawyer": 5770,
      "thorn": 5771,
      "enable": 5772,
      "johnnie": 5773,
      "stirred": 5774,
      "raging": 5775,
      "masters": 5776,
      "granny": 5777,
      "rare": 5778,
      "rained": 5779,
      "refu": 5780,
      "tons": 5781,
      "hired": 5782,
      "riday": 5783,
      "patrol": 5784,
      "tite": 5785,
      "14": 5786,
      "ambit": 5787,
      "cars": 5788,
      "ache": 5789,
      "mike": 5790,
      "raced": 5791,
      "tably": 5792,
      "comm": 5793,
      "horsemen": 5794,
      "purse": 5795,
      "decision": 5796,
      "paying": 5797,
      "frown": 5798,
      "pleasantly": 5799,
      "sper": 5800,
      "wrath": 5801,
      "anticip": 5802,
      "qual": 5803,
      "whoever": 5804,
      "joseph": 5805,
      "alight": 5806,
      "appetite": 5807,
      "represent": 5808,
      "commo": 5809,
      "bargain": 5810,
      "One": 5811,
      "pretended": 5812,
      "sports": 5813,
      "blossom": 5814,
      "cca": 5815,
      "fashioned": 5816,
      "ole": 5817,
      "carri": 5818,
      "Un": 5819,
      "chiefs": 5820,
      "june": 5821,
      "clover": 5822,
      "curiously": 5823,
      "division": 5824,
      "nothin": 5825,
      "villages": 5826,
      "madame": 5827,
      "enjoying": 5828,
      "screen": 5829,
      "followers": 5830,
      "repeat": 5831,
      "scenes": 5832,
      "stomach": 5833,
      "nis": 5834,
      "arrested": 5835,
      "frozen": 5836,
      "policeman": 5837,
      "deeper": 5838,
      "besto": 5839,
      "irene": 5840,
      "reasons": 5841,
      "wept": 5842,
      "yach": 5843,
      "rattle": 5844,
      "moss": 5845,
      "clay": 5846,
      "akes": 5847,
      "furnished": 5848,
      "arrangements": 5849,
      "rajah": 5850,
      "awkward": 5851,
      "toss": 5852,
      "beloved": 5853,
      "cab": 5854,
      "aint": 5855,
      "tribes": 5856,
      "extraordinary": 5857,
      "hotels": 5858,
      "ices": 5859,
      "icy": 5860,
      "chicken": 5861,
      "cush": 5862,
      "wives": 5863,
      "performan": 5864,
      "mothers": 5865,
      "wu": 5866,
      "arts": 5867,
      "counsel": 5868,
      "observe": 5869,
      "rella": 5870,
      "rejoined": 5871,
      "tumbled": 5872,
      "chanced": 5873,
      "nellie": 5874,
      "fourteen": 5875,
      "sternly": 5876,
      "bosom": 5877,
      "marble": 5878,
      "readily": 5879,
      "gerald": 5880,
      "flock": 5881,
      "drops": 5882,
      "collection": 5883,
      "earn": 5884,
      "vale": 5885,
      "reflected": 5886,
      "mortal": 5887,
      "okay": 5888,
      "clasped": 5889,
      "umn": 5890,
      "declare": 5891,
      "weed": 5892,
      "iring": 5893,
      "riously": 5894,
      "eastern": 5895,
      "ignorant": 5896,
      "reminded": 5897,
      "sofa": 5898,
      "dem": 5899,
      "refuge": 5900,
      "marching": 5901,
      "squee": 5902,
      "seal": 5903,
      "generous": 5904,
      "yan": 5905,
      "mah": 5906,
      "floated": 5907,
      "exceedingly": 5908,
      "unconscious": 5909,
      "unte": 5910,
      "perci": 5911,
      "pushing": 5912,
      "fling": 5913,
      "searched": 5914,
      "asser": 5915,
      "protection": 5916,
      "descend": 5917,
      "problem": 5918,
      "noted": 5919,
      "trembled": 5920,
      "cricket": 5921,
      "porter": 5922,
      "improve": 5923,
      "unks": 5924,
      "drift": 5925,
      "graceful": 5926,
      "combat": 5927,
      "picnic": 5928,
      "bough": 5929,
      "mayn": 5930,
      "cott": 5931,
      "scream": 5932,
      "rubber": 5933,
      "poles": 5934,
      "volunte": 5935,
      "autumn": 5936,
      "mule": 5937,
      "sultan": 5938,
      "elfreda": 5939,
      "bend": 5940,
      "dirt": 5941,
      "compass": 5942,
      "freely": 5943,
      "consult": 5944,
      "roused": 5945,
      "gger": 5946,
      "cheap": 5947,
      "singular": 5948,
      "wizard": 5949,
      "instance": 5950,
      "killing": 5951,
      "schooner": 5952,
      "ejac": 5953,
      "spain": 5954,
      "haired": 5955,
      "magician": 5956,
      "liter": 5957,
      "swinging": 5958,
      "sensible": 5959,
      "theat": 5960,
      "sphere": 5961,
      "ffy": 5962,
      "finest": 5963,
      "stretch": 5964,
      "sarah": 5965,
      "vacation": 5966,
      "shill": 5967,
      "uncertain": 5968,
      "appeal": 5969,
      "propose": 5970,
      "detective": 5971,
      "lid": 5972,
      "toys": 5973,
      "noo": 5974,
      "kent": 5975,
      "neighborhood": 5976,
      "hammer": 5977,
      "ita": 5978,
      "suspicious": 5979,
      "vor": 5980,
      "uncomfortable": 5981,
      "freedom": 5982,
      "cove": 5983,
      "qua": 5984,
      "sens": 5985,
      "dins": 5986,
      "impatiently": 5987,
      "longing": 5988,
      "comfortably": 5989,
      "solo": 5990,
      "muff": 5991,
      "sentiment": 5992,
      "dense": 5993,
      "anton": 5994,
      "conver": 5995,
      "donald": 5996,
      "located": 5997,
      "attitude": 5998,
      "cono": 5999,
      "norman": 6000,
      "dreadfully": 6001,
      "jean": 6002,
      "birthday": 6003,
      "dinsmore": 6004,
      "hem": 6005,
      "humble": 6006,
      "brut": 6007,
      "fifth": 6008,
      "imagined": 6009,
      "Anything": 6010,
      "invol": 6011,
      "weeping": 6012,
      "overboard": 6013,
      "hippy": 6014,
      "tempt": 6015,
      "abroad": 6016,
      "romans": 6017,
      "enterpr": 6018,
      "eldest": 6019,
      "tot": 6020,
      "bowl": 6021,
      "jewels": 6022,
      "indicated": 6023,
      "gloo": 6024,
      "ridic": 6025,
      "rivers": 6026,
      "boldly": 6027,
      "stockings": 6028,
      "willingly": 6029,
      "limbs": 6030,
      "gues": 6031,
      "piled": 6032,
      "interfere": 6033,
      "sway": 6034,
      "fugit": 6035,
      "panther": 6036,
      "judgment": 6037,
      "fathers": 6038,
      "profession": 6039,
      "renew": 6040,
      "readiness": 6041,
      "cker": 6042,
      "terence": 6043,
      "possum": 6044,
      "arriving": 6045,
      "difficulties": 6046,
      "pul": 6047,
      "tub": 6048,
      "irlines": 6049,
      "rupert": 6050,
      "robb": 6051,
      "backward": 6052,
      "understanding": 6053,
      "cane": 6054,
      "athing": 6055,
      "vation": 6056,
      "barbar": 6057,
      "ellen": 6058,
      "burnt": 6059,
      "composed": 6060,
      "cass": 6061,
      "training": 6062,
      "confessed": 6063,
      "indignation": 6064,
      "accoun": 6065,
      "procession": 6066,
      "Would": 6067,
      "failure": 6068,
      "13": 6069,
      "jay": 6070,
      "whel": 6071,
      "lifting": 6072,
      "artag": 6073,
      "schol": 6074,
      "artagnan": 6075,
      "mper": 6076,
      "trusted": 6077,
      "belongs": 6078,
      "advise": 6079,
      "chorus": 6080,
      "ske": 6081,
      "defeat": 6082,
      "changing": 6083,
      "scent": 6084,
      "existence": 6085,
      "agnes": 6086,
      "lookout": 6087,
      "pract": 6088,
      "poo": 6089,
      "posal": 6090,
      "violently": 6091,
      "hitherto": 6092,
      "acity": 6093,
      "swing": 6094,
      "grinned": 6095,
      "feels": 6096,
      "knit": 6097,
      "sus": 6098,
      "gotten": 6099,
      "objection": 6100,
      "struggling": 6101,
      "scarlet": 6102,
      "surrender": 6103,
      "interview": 6104,
      "wagons": 6105,
      "robinson": 6106,
      "pressing": 6107,
      "lazy": 6108,
      "prayers": 6109,
      "louder": 6110,
      "vul": 6111,
      "encamp": 6112,
      "maria": 6113,
      "impatient": 6114,
      "padd": 6115,
      "swear": 6116,
      "bravely": 6117,
      "severely": 6118,
      "sioux": 6119,
      "leaping": 6120,
      "joining": 6121,
      "hail": 6122,
      "colors": 6123,
      "treacher": 6124,
      "zo": 6125,
      "arrest": 6126,
      "bounded": 6127,
      "fatig": 6128,
      "miller": 6129,
      "largest": 6130,
      "lame": 6131,
      "wah": 6132,
      "brick": 6133,
      "restored": 6134,
      "ador": 6135,
      "subjects": 6136,
      "moo": 6137,
      "rings": 6138,
      "agony": 6139,
      "columb": 6140,
      "dur": 6141,
      "prosper": 6142,
      "pil": 6143,
      "rachel": 6144,
      "labour": 6145,
      "bomb": 6146,
      "begins": 6147,
      "contest": 6148,
      "fli": 6149,
      "pilot": 6150,
      "notion": 6151,
      "steer": 6152,
      "hunted": 6153,
      "redu": 6154,
      "parting": 6155,
      "covering": 6156,
      "mare": 6157,
      "bug": 6158,
      "clung": 6159,
      "nodding": 6160,
      "hoof": 6161,
      "canvas": 6162,
      "buzz": 6163,
      "separate": 6164,
      "including": 6165,
      "woo": 6166,
      "ruin": 6167,
      "chet": 6168,
      "owe": 6169,
      "pets": 6170,
      "kicked": 6171,
      "seventy": 6172,
      "hart": 6173,
      "cousins": 6174,
      "oath": 6175,
      "shor": 6176,
      "doth": 6177,
      "deliber": 6178,
      "crime": 6179,
      "balloon": 6180,
      "split": 6181,
      "individ": 6182,
      "rus": 6183,
      "offering": 6184,
      "spotted": 6185,
      "prayed": 6186,
      "preferred": 6187,
      "fried": 6188,
      "dome": 6189,
      "baron": 6190,
      "imagination": 6191,
      "holidays": 6192,
      "corne": 6193,
      "tad": 6194,
      "shir": 6195,
      "rights": 6196,
      "belonging": 6197,
      "corners": 6198,
      "revenge": 6199,
      "disposition": 6200,
      "asy": 6201,
      "americans": 6202,
      "pretend": 6203,
      "jess": 6204,
      "shelf": 6205,
      "tex": 6206,
      "chea": 6207,
      "bout": 6208,
      "munition": 6209,
      "1st": 6210,
      "susy": 6211,
      "ante": 6212,
      "eral": 6213,
      "trous": 6214,
      "hurrah": 6215,
      "delicious": 6216,
      "mirror": 6217,
      "kneel": 6218,
      "uneasy": 6219,
      "acc": 6220,
      "cuit": 6221,
      "brace": 6222,
      "lawrence": 6223,
      "ico": 6224,
      "idle": 6225,
      "ples": 6226,
      "design": 6227,
      "trifle": 6228,
      "cooked": 6229,
      "connie": 6230,
      "guid": 6231,
      "meadows": 6232,
      "isle": 6233,
      "shaped": 6234,
      "mson": 6235,
      "leis": 6236,
      "sobbed": 6237,
      "shallow": 6238,
      "scarecrow": 6239,
      "adding": 6240,
      "copy": 6241,
      "ature": 6242,
      "mani": 6243,
      "luke": 6244,
      "original": 6245,
      "gloomy": 6246,
      "fanci": 6247,
      "tori": 6248,
      "zzy": 6249,
      "performed": 6250,
      "damsel": 6251,
      "record": 6252,
      "deserve": 6253,
      "jected": 6254,
      "stubbs": 6255,
      "touching": 6256,
      "response": 6257,
      "leans": 6258,
      "flee": 6259,
      "impressed": 6260,
      "ena": 6261,
      "conditions": 6262,
      "dearest": 6263,
      "ammunition": 6264,
      "monday": 6265,
      "arnold": 6266,
      "satisfactory": 6267,
      "chip": 6268,
      "local": 6269,
      "pple": 6270,
      "hats": 6271,
      "princes": 6272,
      "examine": 6273,
      "buster": 6274,
      "closing": 6275,
      "interior": 6276,
      "compliment": 6277,
      "rig": 6278,
      "thoughtful": 6279,
      "experiment": 6280,
      "ya": 6281,
      "aker": 6282,
      "claws": 6283,
      "heavens": 6284,
      "objected": 6285,
      "tavia": 6286,
      "pirates": 6287,
      "croo": 6288,
      "cordi": 6289,
      "mason": 6290,
      "stained": 6291,
      "commend": 6292,
      "receiving": 6293,
      "hey": 6294,
      "marve": 6295,
      "eob": 6296,
      "anderson": 6297,
      "von": 6298,
      "telegraph": 6299,
      "suitable": 6300,
      "lst": 6301,
      "absor": 6302,
      "partner": 6303,
      "strain": 6304,
      "bella": 6305,
      "twisted": 6306,
      "bending": 6307,
      "iant": 6308,
      "domin": 6309,
      "onds": 6310,
      "prevented": 6311,
      "pupils": 6312,
      "wist": 6313,
      "amazed": 6314,
      "rum": 6315,
      "grumbled": 6316,
      "sinking": 6317,
      "potatoes": 6318,
      "agent": 6319,
      "biggest": 6320,
      "treatment": 6321,
      "film": 6322,
      "hauled": 6323,
      "lover": 6324,
      "independ": 6325,
      "slide": 6326,
      "lined": 6327,
      "sara": 6328,
      "leisure": 6329,
      "mbly": 6330,
      "reasonable": 6331,
      "ejaculated": 6332,
      "fancied": 6333,
      "quantity": 6334,
      "toe": 6335,
      "photo": 6336,
      "discipl": 6337,
      "ike": 6338,
      "earlier": 6339,
      "complain": 6340,
      "janice": 6341,
      "sylvia": 6342,
      "conomy": 6343,
      "liqu": 6344,
      "facing": 6345,
      "bewild": 6346,
      "undoubted": 6347,
      "prim": 6348,
      "violence": 6349,
      "drunk": 6350,
      "conquer": 6351,
      "effe": 6352,
      "volume": 6353,
      "moise": 6354,
      "proudly": 6355,
      "material": 6356,
      "afore": 6357,
      "chill": 6358,
      "dol": 6359,
      "danny": 6360,
      "settlement": 6361,
      "breathed": 6362,
      "berg": 6363,
      "ik": 6364,
      "squad": 6365,
      "dod": 6366,
      "Wi": 6367,
      "moan": 6368,
      "isting": 6369,
      "solemnly": 6370,
      "summoned": 6371,
      "ami": 6372,
      "trunks": 6373,
      "robbed": 6374,
      "wrecked": 6375,
      "yacht": 6376,
      "fortunes": 6377,
      "philo": 6378,
      "clad": 6379,
      "stall": 6380,
      "travelled": 6381,
      "total": 6382,
      "fisherman": 6383,
      "gilbert": 6384,
      "ascertain": 6385,
      "damp": 6386,
      "supplies": 6387,
      "exchange": 6388,
      "finds": 6389,
      "ette": 6390,
      "occasions": 6391,
      "atmo": 6392,
      "pleaded": 6393,
      "colm": 6394,
      "ridden": 6395,
      "Just": 6396,
      "tles": 6397,
      "brows": 6398,
      "parrot": 6399,
      "grain": 6400,
      "simon": 6401,
      "thither": 6402,
      "Fi": 6403,
      "tact": 6404,
      "shores": 6405,
      "stepping": 6406,
      "swallow": 6407,
      "balcony": 6408,
      "mice": 6409,
      "overhead": 6410,
      "pm": 6411,
      "ays": 6412,
      "palm": 6413,
      "anks": 6414,
      "aspe": 6415,
      "malcolm": 6416,
      "struggled": 6417,
      "guarded": 6418,
      "respond": 6419,
      "pigs": 6420,
      "scotch": 6421,
      "ravine": 6422,
      "willet": 6423,
      "county": 6424,
      "nerves": 6425,
      "statement": 6426,
      "performance": 6427,
      "provid": 6428,
      "trist": 6429,
      "villa": 6430,
      "stur": 6431,
      "naval": 6432,
      "considering": 6433,
      "dreaming": 6434,
      "containing": 6435,
      "russian": 6436,
      "rou": 6437,
      "overwhel": 6438,
      "armour": 6439,
      "ec": 6440,
      "breathing": 6441,
      "apparent": 6442,
      "lof": 6443,
      "extend": 6444,
      "continually": 6445,
      "senor": 6446,
      "scotland": 6447,
      "favourite": 6448,
      "luci": 6449,
      "phan": 6450,
      "disput": 6451,
      "dame": 6452,
      "bees": 6453,
      "punished": 6454,
      "romantic": 6455,
      "rebecca": 6456,
      "presu": 6457,
      "believing": 6458,
      "wanting": 6459,
      "chickens": 6460,
      "drown": 6461,
      "sacrifice": 6462,
      "confused": 6463,
      "arer": 6464,
      "exposed": 6465,
      "provo": 6466,
      "tempor": 6467,
      "worship": 6468,
      "needle": 6469,
      "couch": 6470,
      "miriam": 6471,
      "queried": 6472,
      "bli": 6473,
      "rug": 6474,
      "pains": 6475,
      "rays": 6476,
      "travellers": 6477,
      "railway": 6478,
      "awe": 6479,
      "newspaper": 6480,
      "hardy": 6481,
      "stated": 6482,
      "considerably": 6483,
      "distinctly": 6484,
      "tobac": 6485,
      "artist": 6486,
      "wot": 6487,
      "grows": 6488,
      "pred": 6489,
      "ari": 6490,
      "awhile": 6491,
      "consisted": 6492,
      "tunnel": 6493,
      "rhoda": 6494,
      "orchard": 6495,
      "gwen": 6496,
      "enabled": 6497,
      "placing": 6498,
      "conducted": 6499,
      "seizing": 6500,
      "fortnight": 6501,
      "avenue": 6502,
      "tages": 6503,
      "seize": 6504,
      "swee": 6505,
      "hasty": 6506,
      "moiselle": 6507,
      "cris": 6508,
      "countries": 6509,
      "poetry": 6510,
      "comparatively": 6511,
      "hound": 6512,
      "root": 6513,
      "40": 6514,
      "ety": 6515,
      "boast": 6516,
      "signed": 6517,
      "tristram": 6518,
      "sax": 6519,
      "punish": 6520,
      "bass": 6521,
      "suits": 6522,
      "blazing": 6523,
      "cheon": 6524,
      "repair": 6525,
      "rubbing": 6526,
      "leaders": 6527,
      "wow": 6528,
      "marvel": 6529,
      "diamonds": 6530,
      "paddle": 6531,
      "pluck": 6532,
      "sahwah": 6533,
      "solomon": 6534,
      "jeff": 6535,
      "soil": 6536,
      "explos": 6537,
      "nelson": 6538,
      "costume": 6539,
      "fasc": 6540,
      "appears": 6541,
      "consideration": 6542,
      "maids": 6543,
      "roaring": 6544,
      "whilst": 6545,
      "rowing": 6546,
      "amongst": 6547,
      "ozma": 6548,
      "sep": 6549,
      "traveled": 6550,
      "lions": 6551,
      "lords": 6552,
      "gap": 6553,
      "mers": 6554,
      "sery": 6555,
      "creep": 6556,
      "dainty": 6557,
      "stit": 6558,
      "hopeless": 6559,
      "practical": 6560,
      "cavern": 6561,
      "lley": 6562,
      "ceremony": 6563,
      "tough": 6564,
      "hoarse": 6565,
      "sunny": 6566,
      "bishop": 6567,
      "tobacco": 6568,
      "ourable": 6569,
      "whale": 6570,
      "motive": 6571,
      "affected": 6572,
      "hark": 6573,
      "spoiled": 6574,
      "shower": 6575,
      "blank": 6576,
      "murmur": 6577,
      "students": 6578,
      "stooped": 6579,
      "burgl": 6580,
      "approval": 6581,
      ".)": 6582,
      "nursery": 6583,
      "assault": 6584,
      "mademoiselle": 6585,
      "dearly": 6586,
      "peaceful": 6587,
      "encoun": 6588,
      "whir": 6589,
      "preced": 6590,
      "marco": 6591,
      "proportion": 6592,
      "hurriedly": 6593,
      "kest": 6594,
      "lasted": 6595,
      "risen": 6596,
      "clearing": 6597,
      "blosso": 6598,
      "Ho": 6599,
      "ore": 6600,
      "escort": 6601,
      "vincent": 6602,
      "exit": 6603,
      "likewise": 6604,
      "scrap": 6605,
      "closet": 6606,
      "cie": 6607,
      "refresh": 6608,
      "caps": 6609,
      "disagreeable": 6610,
      "ritz": 6611,
      "undoubtedly": 6612,
      "atic": 6613,
      "cheers": 6614,
      "paws": 6615,
      "objects": 6616,
      "skipper": 6617,
      "compre": 6618,
      "immediate": 6619,
      "jap": 6620,
      "cease": 6621,
      "nero": 6622,
      "sensation": 6623,
      "itated": 6624,
      "velope": 6625,
      "atmosphere": 6626,
      "checked": 6627,
      "reckless": 6628,
      "ribbon": 6629,
      "shepherd": 6630,
      "tune": 6631,
      "occasional": 6632,
      "blessing": 6633,
      "lur": 6634,
      "steve": 6635,
      "spots": 6636,
      "encounter": 6637,
      "mappo": 6638,
      "prey": 6639,
      "prow": 6640,
      "appearing": 6641,
      "apprehen": 6642,
      "ruddy": 6643,
      "vague": 6644,
      "manager": 6645,
      "civi": 6646,
      "trousers": 6647,
      "pies": 6648,
      "envelope": 6649,
      "section": 6650,
      "desir": 6651,
      "hurled": 6652,
      "announce": 6653,
      "tink": 6654,
      "ues": 6655,
      "ider": 6656,
      "harsh": 6657,
      "channel": 6658,
      "facts": 6659,
      "forests": 6660,
      "politely": 6661,
      "tren": 6662,
      "thumb": 6663,
      "faded": 6664,
      "sket": 6665,
      "armies": 6666,
      "challen": 6667,
      "million": 6668,
      "fist": 6669,
      "assumed": 6670,
      "arrangement": 6671,
      "consented": 6672,
      "ats": 6673,
      "joyou": 6674,
      "stanley": 6675,
      "brigade": 6676,
      "peterkin": 6677,
      "shuff": 6678,
      "ckled": 6679,
      "preva": 6680,
      "josie": 6681,
      "tread": 6682,
      "relu": 6683,
      "meals": 6684,
      "rescued": 6685,
      "contra": 6686,
      "plane": 6687,
      "hesitation": 6688,
      "reluct": 6689,
      "sno": 6690,
      "nal": 6691,
      "retire": 6692,
      "issued": 6693,
      "senses": 6694,
      "stirring": 6695,
      "ials": 6696,
      "rag": 6697,
      "affor": 6698,
      "cheese": 6699,
      "balance": 6700,
      "referred": 6701,
      "mign": 6702,
      "limp": 6703,
      "copper": 6704,
      "whistling": 6705,
      "sacred": 6706,
      "deaf": 6707,
      "lain": 6708,
      "beautifully": 6709,
      "comprehen": 6710,
      "specim": 6711,
      "bruary": 6712,
      "rass": 6713,
      "viously": 6714,
      "brains": 6715,
      "slick": 6716,
      "posts": 6717,
      "stealing": 6718,
      "uous": 6719,
      "leslie": 6720,
      "supplied": 6721,
      "jacket": 6722,
      "egy": 6723,
      "acade": 6724,
      "housekeeper": 6725,
      "squin": 6726,
      "grocer": 6727,
      "jail": 6728,
      "alec": 6729,
      "seventeen": 6730,
      "creeping": 6731,
      "gladys": 6732,
      "gordon": 6733,
      "dusk": 6734,
      "portu": 6735,
      "tenderly": 6736,
      "describe": 6737,
      "batteries": 6738,
      "convenient": 6739,
      "mostly": 6740,
      "knelt": 6741,
      "embarrass": 6742,
      "shaken": 6743,
      "grimly": 6744,
      "established": 6745,
      "reproach": 6746,
      "species": 6747,
      "streams": 6748,
      "recognize": 6749,
      "changes": 6750,
      "scal": 6751,
      "camera": 6752,
      "peg": 6753,
      "dith": 6754,
      "exchanged": 6755,
      "hounds": 6756,
      "tible": 6757,
      "beggar": 6758,
      "answering": 6759,
      "italian": 6760,
      "wander": 6761,
      "commented": 6762,
      "spar": 6763,
      "misfortune": 6764,
      "colon": 6765,
      "cards": 6766,
      "inity": 6767,
      "prescott": 6768,
      "percival": 6769,
      "rous": 6770,
      "izens": 6771,
      "digging": 6772,
      "La": 6773,
      "lament": 6774,
      "deny": 6775,
      "piano": 6776,
      "vege": 6777,
      "rabb": 6778,
      "daybreak": 6779,
      "eph": 6780,
      "judith": 6781,
      "monkeys": 6782,
      "lass": 6783,
      "seaman": 6784,
      "penet": 6785,
      "depths": 6786,
      "steward": 6787,
      "ringing": 6788,
      "modern": 6789,
      "mental": 6790,
      "chica": 6791,
      "ruined": 6792,
      "sunk": 6793,
      "fits": 6794,
      "mechan": 6795,
      "behave": 6796,
      "forgetting": 6797,
      "masses": 6798,
      "lancelot": 6799,
      "career": 6800,
      "studied": 6801,
      "nicely": 6802,
      "springing": 6803,
      "philoso": 6804,
      "parce": 6805,
      "painful": 6806,
      "collect": 6807,
      "unusually": 6808,
      "crawl": 6809,
      "'-": 6810,
      "chicago": 6811,
      "pouring": 6812,
      "hap": 6813,
      "poll": 6814,
      "eleg": 6815,
      "mul": 6816,
      "recon": 6817,
      "neath": 6818,
      "briefly": 6819,
      "indignantly": 6820,
      "lict": 6821,
      "assisted": 6822,
      "robbers": 6823,
      "angers": 6824,
      "wiped": 6825,
      "unts": 6826,
      "sex": 6827,
      "gered": 6828,
      "perse": 6829,
      "instit": 6830,
      "profound": 6831,
      "sped": 6832,
      "wonderfully": 6833,
      "arrives": 6834,
      "mund": 6835,
      "aspect": 6836,
      "yd": 6837,
      "45": 6838,
      "hears": 6839,
      "florence": 6840,
      "iso": 6841,
      "strangely": 6842,
      "title": 6843,
      "swamp": 6844,
      "route": 6845,
      "hint": 6846,
      "chas": 6847,
      "alter": 6848,
      "carson": 6849,
      "flint": 6850,
      "rick": 6851,
      "dragging": 6852,
      "herds": 6853,
      "cale": 6854,
      "washing": 6855,
      "resolute": 6856,
      "merrily": 6857,
      "dic": 6858,
      "wain": 6859,
      "metal": 6860,
      "frequent": 6861,
      "neighbourhood": 6862,
      "brings": 6863,
      "plates": 6864,
      "scrambled": 6865,
      "rats": 6866,
      "luncheon": 6867,
      "provide": 6868,
      "congratul": 6869,
      "determination": 6870,
      "ffe": 6871,
      "dio": 6872,
      "flowed": 6873,
      "rascal": 6874,
      "virginia": 6875,
      "uly": 6876,
      "tember": 6877,
      "doubtful": 6878,
      "peasant": 6879,
      "orange": 6880,
      "ducks": 6881,
      "granted": 6882,
      "mot": 6883,
      "shrew": 6884,
      "shaggy": 6885,
      "flowing": 6886,
      "bidding": 6887,
      "regiments": 6888,
      "appreciate": 6889,
      "div": 6890,
      "reputation": 6891,
      "ela": 6892,
      "secretary": 6893,
      "launch": 6894,
      "dag": 6895,
      "glowing": 6896,
      "planted": 6897,
      "awaiting": 6898,
      "cities": 6899,
      "brightly": 6900,
      "luxu": 6901,
      "cated": 6902,
      "elbow": 6903,
      "putnam": 6904,
      "shrill": 6905,
      "riel": 6906,
      "galloped": 6907,
      "distinguished": 6908,
      "growth": 6909,
      "lemon": 6910,
      "project": 6911,
      "puss": 6912,
      "filling": 6913,
      "africa": 6914,
      "pence": 6915,
      "twin": 6916,
      "Fran": 6917,
      "dangers": 6918,
      "remembering": 6919,
      "soup": 6920,
      "privile": 6921,
      "bewildered": 6922,
      "ators": 6923,
      "iter": 6924,
      "woe": 6925,
      "pencil": 6926,
      "observation": 6927,
      "prudy": 6928,
      "leton": 6929,
      "hip": 6930,
      "snar": 6931,
      "constable": 6932,
      "hester": 6933,
      "nees": 6934,
      "upright": 6935,
      "surgeon": 6936,
      "frenchman": 6937,
      "positively": 6938,
      "beam": 6939,
      "Hotel": 6940,
      "disgrace": 6941,
      "campa": 6942,
      "barely": 6943,
      "clinging": 6944,
      "hearth": 6945,
      "bloom": 6946,
      "ireland": 6947,
      "bills": 6948,
      "alled": 6949,
      "purchase": 6950,
      "walks": 6951,
      "lotte": 6952,
      "umbrella": 6953,
      "This": 6954,
      "insu": 6955,
      "wrink": 6956,
      "positions": 6957,
      "berth": 6958,
      "wont": 6959,
      "velvet": 6960,
      "embro": 6961,
      "surd": 6962,
      "sticking": 6963,
      "released": 6964,
      "absurd": 6965,
      "underneath": 6966,
      "dinah": 6967,
      "responsible": 6968,
      "fritz": 6969,
      "pitched": 6970,
      "grav": 6971,
      "crushed": 6972,
      "mignon": 6973,
      "inner": 6974,
      "riff": 6975,
      "pete": 6976,
      "convent": 6977,
      "resent": 6978,
      "sentine": 6979,
      "charley": 6980,
      "swallowed": 6981,
      "ridges": 6982,
      "marilla": 6983,
      "twilight": 6984,
      "tools": 6985,
      "constru": 6986,
      "expense": 6987,
      "assail": 6988,
      "oar": 6989,
      "gling": 6990,
      "oldest": 6991,
      "brew": 6992,
      "maggie": 6993,
      "fatal": 6994,
      "glee": 6995,
      "intently": 6996,
      "crimson": 6997,
      "relations": 6998,
      "nobles": 6999,
      "applied": 7000,
      "knives": 7001,
      "operation": 7002,
      "residence": 7003,
      "july": 7004,
      "feeble": 7005,
      "lang": 7006,
      "archer": 7007,
      "trailer": 7008,
      "acknowled": 7009,
      "intervals": 7010,
      "tress": 7011,
      "calf": 7012,
      "friday": 7013,
      "indust": 7014,
      "pail": 7015,
      "johnson": 7016,
      "cisco": 7017,
      "method": 7018,
      "admired": 7019,
      "academy": 7020,
      "awaited": 7021,
      "petu": 7022,
      "bonnet": 7023,
      "greeting": 7024,
      "becomes": 7025,
      "stephen": 7026,
      "penn": 7027,
      "planning": 7028,
      "skirts": 7029,
      "thicket": 7030,
      "enterprise": 7031,
      "spared": 7032,
      "citizens": 7033,
      "tivity": 7034,
      "City": 7035,
      "tame": 7036,
      "misery": 7037,
      "undertake": 7038,
      "inquire": 7039,
      "hael": 7040,
      "sunlight": 7041,
      "ivan": 7042,
      "senior": 7043,
      "examining": 7044,
      "rosie": 7045,
      "invite": 7046,
      "connection": 7047,
      "nim": 7048,
      "rela": 7049,
      "May": 7050,
      "gion": 7051,
      "xvi": 7052,
      "unlike": 7053,
      "lowe": 7054,
      "desperately": 7055,
      "apron": 7056,
      "magaz": 7057,
      "rabbits": 7058,
      "attic": 7059,
      "revealed": 7060,
      "bing": 7061,
      "luc": 7062,
      "thirteen": 7063,
      "furiously": 7064,
      "veil": 7065,
      "giants": 7066,
      "uses": 7067,
      "visiting": 7068,
      "impulse": 7069,
      "parson": 7070,
      "feeding": 7071,
      "davis": 7072,
      "stray": 7073,
      "speaker": 7074,
      "reception": 7075,
      "gala": 7076,
      "traitor": 7077,
      "machin": 7078,
      "mexico": 7079,
      "follows": 7080,
      "dell": 7081,
      "holds": 7082,
      "happening": 7083,
      "goats": 7084,
      "wharf": 7085,
      "defe": 7086,
      "daniel": 7087,
      "stamped": 7088,
      "dwelling": 7089,
      "mou": 7090,
      "weep": 7091,
      "unc": 7092,
      "female": 7093,
      "nowhere": 7094,
      "cuth": 7095,
      "cups": 7096,
      "thieves": 7097,
      "sparkling": 7098,
      "allig": 7099,
      "pasture": 7100,
      "holland": 7101,
      "inton": 7102,
      "evelyn": 7103,
      "smu": 7104,
      "wri": 7105,
      "lump": 7106,
      "attractive": 7107,
      "Francisco": 7108,
      "eva": 7109,
      "retain": 7110,
      "countess": 7111,
      "economy": 7112,
      "stif": 7113,
      "headquarters": 7114,
      "system": 7115,
      "accomplish": 7116,
      "mink": 7117,
      "invisible": 7118,
      "jake": 7119,
      "pistols": 7120,
      "aerop": 7121,
      "hog": 7122,
      "stron": 7123,
      "official": 7124,
      "physic": 7125,
      "oliver": 7126,
      "ridiculous": 7127,
      "spears": 7128,
      "blast": 7129,
      "inse": 7130,
      "num": 7131,
      "authorities": 7132,
      "slay": 7133,
      "beams": 7134,
      "barney": 7135,
      "treasures": 7136,
      "satisfy": 7137,
      "responsi": 7138,
      "precise": 7139,
      "corrid": 7140,
      "vert": 7141,
      "outdoor": 7142,
      "cuthbert": 7143,
      ").": 7144,
      "bolt": 7145,
      "warren": 7146,
      "pirate": 7147,
      "slumber": 7148,
      "lily": 7149,
      "theirs": 7150,
      "remainder": 7151,
      "baskets": 7152,
      "relatives": 7153,
      "bling": 7154,
      "vag": 7155,
      "thar": 7156,
      "harbour": 7157,
      "ird": 7158,
      "compared": 7159,
      "persuaded": 7160,
      "curtains": 7161,
      "thine": 7162,
      "cheered": 7163,
      "sleigh": 7164,
      "handful": 7165,
      "lones": 7166,
      "wits": 7167,
      "traps": 7168,
      "Hold": 7169,
      "fergus": 7170,
      "appropri": 7171,
      "ouch": 7172,
      "disguise": 7173,
      "tank": 7174,
      "sheriff": 7175,
      "confirm": 7176,
      "committed": 7177,
      "mines": 7178,
      "concern": 7179,
      "lodging": 7180,
      "sheets": 7181,
      "curls": 7182,
      "solitary": 7183,
      "motionless": 7184,
      "adopted": 7185,
      "midshipman": 7186,
      "coln": 7187,
      "grieved": 7188,
      "Whi": 7189,
      "coco": 7190,
      "torch": 7191,
      "patched": 7192,
      "stuffed": 7193,
      "religion": 7194,
      "induced": 7195,
      "harness": 7196,
      "camping": 7197,
      "rian": 7198,
      "zzle": 7199,
      "capt": 7200,
      "fitting": 7201,
      "instrument": 7202,
      "execution": 7203,
      "thea": 7204,
      "dismounted": 7205,
      "strict": 7206,
      "painting": 7207,
      "mouths": 7208,
      "dwe": 7209,
      "doo": 7210,
      "tyard": 7211,
      "variety": 7212,
      "sniff": 7213,
      "remo": 7214,
      "clump": 7215,
      "dean": 7216,
      "battal": 7217,
      "obstin": 7218,
      "peered": 7219,
      "spiration": 7220,
      "seeming": 7221,
      "niece": 7222,
      "shops": 7223,
      "teaching": 7224,
      "whistled": 7225,
      "committee": 7226,
      "aye": 7227,
      "boarding": 7228,
      "champion": 7229,
      "roast": 7230,
      "carter": 7231,
      "tribut": 7232,
      "bands": 7233,
      "remind": 7234,
      "specially": 7235,
      "....": 7236,
      "twinkle": 7237,
      "wilt": 7238,
      "classes": 7239,
      "uary": 7240,
      "curled": 7241,
      "latest": 7242,
      "winning": 7243,
      "heroes": 7244,
      "wasted": 7245,
      "ctic": 7246,
      "grip": 7247,
      "deserved": 7248,
      "discipline": 7249,
      "tus": 7250,
      "happier": 7251,
      "dumb": 7252,
      "faintly": 7253,
      "squinty": 7254,
      "arn": 7255,
      "sympathe": 7256,
      "owen": 7257,
      "valent": 7258,
      "feller": 7259,
      "vines": 7260,
      "obedience": 7261,
      "positive": 7262,
      "liness": 7263,
      "rider": 7264,
      "galley": 7265,
      "wax": 7266,
      "summit": 7267,
      "warmth": 7268,
      "reports": 7269,
      "att": 7270,
      "somer": 7271,
      "proceeding": 7272,
      "recalled": 7273,
      "coin": 7274,
      "worm": 7275,
      "thirst": 7276,
      "resolution": 7277,
      "assistant": 7278,
      "surrounding": 7279,
      "recently": 7280,
      "individual": 7281,
      "oda": 7282,
      "recent": 7283,
      "sewing": 7284,
      "mini": 7285,
      "patches": 7286,
      "healthy": 7287,
      "tooth": 7288,
      "jewel": 7289,
      "flashing": 7290,
      "courtes": 7291,
      "vicinity": 7292,
      "gleam": 7293,
      "peeped": 7294,
      "dwelt": 7295,
      "increasing": 7296,
      "horseback": 7297,
      "studying": 7298,
      "propri": 7299,
      "strained": 7300,
      "melan": 7301,
      "chir": 7302,
      "liz": 7303,
      "handy": 7304,
      "blin": 7305,
      "central": 7306,
      "threatening": 7307,
      "discussion": 7308,
      "abandoned": 7309,
      "tomb": 7310,
      "mage": 7311,
      "protected": 7312,
      "quality": 7313,
      "foam": 7314,
      "endure": 7315,
      "elsewhere": 7316,
      "excitedly": 7317,
      "So": 7318,
      "incred": 7319,
      "plor": 7320,
      "thrill": 7321,
      ",'\"": 7322,
      "increase": 7323,
      "suited": 7324,
      "intending": 7325,
      "indignant": 7326,
      "clapped": 7327,
      "tempted": 7328,
      "souls": 7329,
      "ctively": 7330,
      "guine": 7331,
      "fireplace": 7332,
      "When": 7333,
      "uck": 7334,
      "stool": 7335,
      "flank": 7336,
      "sickness": 7337,
      "habits": 7338,
      "backed": 7339,
      "brute": 7340,
      "jason": 7341,
      "ernest": 7342,
      "scound": 7343,
      "bind": 7344,
      "reins": 7345,
      "thirsty": 7346,
      "passes": 7347,
      "mourn": 7348,
      "eff": 7349,
      "edith": 7350,
      "irre": 7351,
      "illes": 7352,
      "mammy": 7353,
      "preparation": 7354,
      "throng": 7355,
      "counting": 7356,
      "clust": 7357,
      "winding": 7358,
      "rebell": 7359,
      "cargo": 7360,
      "cowboy": 7361,
      "campaign": 7362,
      "gur": 7363,
      "cash": 7364,
      "vengeance": 7365,
      "meek": 7366,
      "operations": 7367,
      "affectionate": 7368,
      "onto": 7369,
      "tile": 7370,
      "poses": 7371,
      "hopped": 7372,
      "gaily": 7373,
      "cheapest": 7374,
      "racing": 7375,
      "vote": 7376,
      "matic": 7377,
      "spoon": 7378,
      "novel": 7379,
      "inquiries": 7380,
      "horace": 7381,
      "sixth": 7382,
      "rejoiced": 7383,
      "ib": 7384,
      "phon": 7385,
      "musk": 7386,
      "Airlines": 7387,
      "boughs": 7388,
      "shrewd": 7389,
      "ids": 7390,
      "laden": 7391,
      "koku": 7392,
      "towers": 7393,
      "fts": 7394,
      "warrant": 7395,
      "pike": 7396,
      "englishman": 7397,
      "portra": 7398,
      "vereign": 7399,
      "gloves": 7400,
      "anut": 7401,
      "grind": 7402,
      "cares": 7403,
      "York": 7404,
      "slipping": 7405,
      "tasted": 7406,
      "vously": 7407,
      "ronald": 7408,
      "sets": 7409,
      "nyoda": 7410,
      "nestor": 7411,
      "junior": 7412,
      "communication": 7413,
      "cub": 7414,
      "una": 7415,
      "ulars": 7416,
      "pril": 7417,
      "christi": 7418,
      "secur": 7419,
      "strings": 7420,
      "bbles": 7421,
      "wren": 7422,
      "eighty": 7423,
      "relieve": 7424,
      "nicho": 7425,
      "secretly": 7426,
      "tober": 7427,
      "captive": 7428,
      "experiences": 7429,
      "Which": 7430,
      "nell": 7431,
      "excur": 7432,
      "grees": 7433,
      "resul": 7434,
      "sovereign": 7435,
      "veranda": 7436,
      "coolly": 7437,
      "amad": 7438,
      "helmet": 7439,
      "purchased": 7440,
      "turk": 7441,
      "lonesome": 7442,
      "bber": 7443,
      "andrew": 7444,
      "tumble": 7445,
      "explosion": 7446,
      "attered": 7447,
      "mules": 7448,
      "betsy": 7449,
      "depth": 7450,
      "insist": 7451,
      "district": 7452,
      "rosal": 7453,
      "winchester": 7454,
      "degrees": 7455,
      "tax": 7456,
      "boss": 7457,
      "adel": 7458,
      "laurie": 7459,
      "sweeping": 7460,
      "lincoln": 7461,
      "keys": 7462,
      "supported": 7463,
      "dove": 7464,
      "ruff": 7465,
      "spectacles": 7466,
      "recor": 7467,
      "coyo": 7468,
      "mack": 7469,
      "serpent": 7470,
      "hud": 7471,
      "choked": 7472,
      "Have": 7473,
      "antic": 7474,
      "displayed": 7475,
      "hire": 7476,
      "coyote": 7477,
      "dess": 7478,
      "outfit": 7479,
      "fasten": 7480,
      "float": 7481,
      "release": 7482,
      "tling": 7483,
      "marsh": 7484,
      "earned": 7485,
      "snatched": 7486,
      "moral": 7487,
      "landlord": 7488,
      "director": 7489,
      "tories": 7490,
      "behaved": 7491,
      "bap": 7492,
      "snor": 7493,
      "actor": 7494,
      "beings": 7495,
      "posted": 7496,
      "inspe": 7497,
      "colin": 7498,
      "aves": 7499,
      "barking": 7500,
      "regain": 7501,
      "suspicions": 7502,
      "stake": 7503,
      "neglected": 7504,
      "foreman": 7505,
      "studies": 7506,
      "coloured": 7507,
      "crimin": 7508,
      "twinkling": 7509,
      "nig": 7510,
      "courtyard": 7511,
      "nets": 7512,
      "decent": 7513,
      "standard": 7514,
      "observing": 7515,
      "relation": 7516,
      "intelligence": 7517,
      "heel": 7518,
      "stare": 7519,
      "bein": 7520,
      "candles": 7521,
      "bruce": 7522,
      "folly": 7523,
      "acious": 7524,
      "ggled": 7525,
      "scratch": 7526,
      "vice": 7527,
      "fret": 7528,
      "saluted": 7529,
      "April": 7530,
      "tock": 7531,
      "clair": 7532,
      "stumbled": 7533,
      "melted": 7534,
      "recall": 7535,
      "aft": 7536,
      "julia": 7537,
      "circul": 7538,
      "conductor": 7539,
      "social": 7540,
      "reality": 7541,
      "linen": 7542,
      "department": 7543,
      "groups": 7544,
      "Per": 7545,
      "corpor": 7546,
      "shove": 7547,
      "badger": 7548,
      "crust": 7549,
      "eagerness": 7550,
      "enthusiastic": 7551,
      "melancho": 7552,
      "tial": 7553,
      "gos": 7554,
      "welcomed": 7555,
      "swit": 7556,
      "greek": 7557,
      "dled": 7558,
      "dip": 7559,
      "assuredly": 7560,
      "wealthy": 7561,
      "doings": 7562,
      "foster": 7563,
      "carp": 7564,
      "matches": 7565,
      "foul": 7566,
      "hank": 7567,
      "chains": 7568,
      "frighten": 7569,
      "knocking": 7570,
      "judged": 7571,
      "mexicans": 7572,
      "unfortunately": 7573,
      "assented": 7574,
      "mounting": 7575,
      "shalt": 7576,
      "plump": 7577,
      "chal": 7578,
      "oppon": 7579,
      "loqu": 7580,
      "thompson": 7581,
      "fearing": 7582,
      "engagement": 7583,
      "hick": 7584,
      "lishment": 7585,
      "iding": 7586,
      "scale": 7587,
      "kids": 7588,
      "argument": 7589,
      "remove": 7590,
      "thence": 7591,
      "naked": 7592,
      "pipes": 7593,
      "forming": 7594,
      "terrific": 7595,
      "sneak": 7596,
      "grunted": 7597,
      "merch": 7598,
      "fielding": 7599,
      "beads": 7600,
      "farnum": 7601,
      "bursting": 7602,
      "constit": 7603,
      "emergen": 7604,
      "leve": 7605,
      "restless": 7606,
      "francisco": 7607,
      "melancholy": 7608,
      "bler": 7609,
      "absorbed": 7610,
      "rue": 7611,
      "stretching": 7612,
      "pierre": 7613,
      "wheat": 7614,
      "squaw": 7615,
      "emplo": 7616,
      "sheltered": 7617,
      "slicko": 7618,
      "mau": 7619,
      "nail": 7620,
      "sized": 7621,
      "plays": 7622,
      "chiefly": 7623,
      "Amer": 7624,
      "troo": 7625,
      "coy": 7626,
      "wisely": 7627,
      "actions": 7628,
      "fascin": 7629,
      "comin": 7630,
      "cling": 7631,
      "accounts": 7632,
      "gawain": 7633,
      "genius": 7634,
      "rainbow": 7635,
      "barbara": 7636,
      "'.\"": 7637,
      "ffi": 7638,
      "hens": 7639,
      "briskly": 7640,
      "encountered": 7641,
      "email": 7642,
      "phoe": 7643,
      "willow": 7644,
      "accommo": 7645,
      "nington": 7646,
      "bbled": 7647,
      "lofty": 7648,
      "hatch": 7649,
      "hammond": 7650,
      "addressing": 7651,
      "panting": 7652,
      "June": 7653,
      "wool": 7654,
      "nove": 7655,
      "ppled": 7656,
      "nerve": 7657,
      "slim": 7658,
      "thanksgiving": 7659,
      "heath": 7660,
      "tram": 7661,
      "davy": 7662,
      "campbell": 7663,
      "shrieked": 7664,
      "plank": 7665,
      "correspond": 7666,
      "sands": 7667,
      "pressure": 7668,
      "persisted": 7669,
      "ornament": 7670,
      "reflection": 7671,
      "crooked": 7672,
      "robes": 7673,
      "cracked": 7674,
      "packing": 7675,
      "inda": 7676,
      "harris": 7677,
      "wrought": 7678,
      "deceived": 7679,
      "heir": 7680,
      "encourage": 7681,
      "beer": 7682,
      "schools": 7683,
      "proposal": 7684,
      "scow": 7685,
      "pages": 7686,
      "chapel": 7687,
      "maidens": 7688,
      "weakness": 7689,
      "trotted": 7690,
      "staggered": 7691,
      "crouched": 7692,
      "warmed": 7693,
      "colours": 7694,
      "deemed": 7695,
      "cadets": 7696,
      "maynard": 7697,
      "reduced": 7698,
      "To": 7699,
      "rosco": 7700,
      "overheard": 7701,
      "untie": 7702,
      "enjoyment": 7703,
      "bart": 7704,
      "besie": 7705,
      "forgiven": 7706,
      "esther": 7707,
      "boiling": 7708,
      "produce": 7709,
      "nah": 7710,
      "parad": 7711,
      "secrets": 7712,
      "vigorous": 7713,
      "league": 7714,
      "howl": 7715,
      "joyce": 7716,
      "attendants": 7717,
      "sheer": 7718,
      "location": 7719,
      "acles": 7720,
      "fulness": 7721,
      "treating": 7722,
      "ignorance": 7723,
      "hoofs": 7724,
      "ona": 7725,
      "stic": 7726,
      "speaks": 7727,
      "butterfly": 7728,
      "ria": 7729,
      "carelessly": 7730,
      "wages": 7731,
      "beef": 7732,
      "tiest": 7733,
      "spray": 7734,
      "steed": 7735,
      "jem": 7736,
      "rememb": 7737,
      "article": 7738,
      "Seat": 7739,
      "achie": 7740,
      "stately": 7741,
      "canal": 7742,
      "mono": 7743,
      "drill": 7744,
      "imagin": 7745,
      "telegram": 7746,
      "pronounced": 7747,
      "rut": 7748,
      "doubled": 7749,
      "bridle": 7750,
      "respects": 7751,
      "mused": 7752,
      "peters": 7753,
      "sleeve": 7754,
      "physical": 7755,
      "indifferen": 7756,
      "Seattle": 7757,
      "emi": 7758,
      "hir": 7759,
      "juni": 7760,
      "caes": 7761,
      "tearing": 7762,
      "blade": 7763,
      "stricken": 7764,
      "yaw": 7765,
      "talbot": 7766,
      "rusty": 7767,
      "commence": 7768,
      "consol": 7769,
      "visits": 7770,
      "wonders": 7771,
      "companies": 7772,
      "consciousness": 7773,
      "introduce": 7774,
      "orting": 7775,
      "discharged": 7776,
      "slipper": 7777,
      "exeunt": 7778,
      "sallie": 7779,
      "Perfect": 7780,
      "apa": 7781,
      "ili": 7782,
      "appar": 7783,
      "huts": 7784,
      "electri": 7785,
      "sullen": 7786,
      "paths": 7787,
      "scor": 7788,
      "cultiv": 7789,
      "frag": 7790,
      "september": 7791,
      "blossoms": 7792,
      "aging": 7793,
      "snug": 7794,
      "irishman": 7795,
      "wright": 7796,
      "chess": 7797,
      "latin": 7798,
      "wheeled": 7799,
      "Fe": 7800,
      "leo": 7801,
      "agers": 7802,
      "complained": 7803,
      "cautious": 7804,
      "glittering": 7805,
      "Are": 7806,
      "boot": 7807,
      "bloo": 7808,
      "drama": 7809,
      "neatly": 7810,
      "scholar": 7811,
      "lent": 7812,
      "bertha": 7813,
      "superintend": 7814,
      "downward": 7815,
      "runaway": 7816,
      "scrape": 7817,
      "weigh": 7818,
      "signific": 7819,
      "nonstop": 7820,
      "rors": 7821,
      "eskim": 7822,
      "vivid": 7823,
      "terrified": 7824,
      "battles": 7825,
      "regularly": 7826,
      "distinct": 7827,
      "chasing": 7828,
      "atter": 7829,
      "adic": 7830,
      "beric": 7831,
      "regions": 7832,
      "spreading": 7833,
      "amadis": 7834,
      "gul": 7835,
      "infer": 7836,
      "ruins": 7837,
      "nails": 7838,
      "submit": 7839,
      "effects": 7840,
      "dignified": 7841,
      "arab": 7842,
      "undance": 7843,
      "mansion": 7844,
      "estim": 7845,
      "commands": 7846,
      "kite": 7847,
      "brim": 7848,
      "breathless": 7849,
      "employment": 7850,
      "For": 7851,
      "fame": 7852,
      "illust": 7853,
      "overtake": 7854,
      "guided": 7855,
      "national": 7856,
      "confederate": 7857,
      "umin": 7858,
      "perched": 7859,
      "tumbling": 7860,
      "amusing": 7861,
      "ticing": 7862,
      "smiles": 7863,
      "An": 7864,
      "mow": 7865,
      "pled": 7866,
      "entertainment": 7867,
      "contribut": 7868,
      "Cali": 7869,
      "pots": 7870,
      "survi": 7871,
      "lust": 7872,
      "youths": 7873,
      "helm": 7874,
      "genu": 7875,
      "phia": 7876,
      "induce": 7877,
      "docu": 7878,
      "plus": 7879,
      "funeral": 7880,
      "missionary": 7881,
      "admire": 7882,
      "California": 7883,
      "gious": 7884,
      "scient": 7885,
      "steering": 7886,
      "stanhope": 7887,
      "pearl": 7888,
      "shudder": 7889,
      "frock": 7890,
      "iance": 7891,
      "rebel": 7892,
      "pupil": 7893,
      "crane": 7894,
      "asserted": 7895,
      "gossi": 7896,
      "subdu": 7897,
      "emerged": 7898,
      "sherwood": 7899,
      "imer": 7900,
      "snakes": 7901,
      "mits": 7902,
      "alert": 7903,
      "boil": 7904,
      "interpre": 7905,
      "columbus": 7906,
      "machinery": 7907,
      "ripe": 7908,
      "whiskers": 7909,
      "astic": 7910,
      "imprison": 7911,
      "geo": 7912,
      "rents": 7913,
      "para": 7914,
      "surprising": 7915,
      "strip": 7916,
      "erect": 7917,
      "photograph": 7918,
      "baker": 7919,
      "whither": 7920,
      "fiery": 7921,
      "acts": 7922,
      "bonds": 7923,
      "chatter": 7924,
      "nelly": 7925,
      "quarre": 7926,
      "stammered": 7927,
      "drifted": 7928,
      "glyn": 7929,
      "smallest": 7930,
      "ration": 7931,
      "poly": 7932,
      "chey": 7933,
      "quered": 7934,
      "consequences": 7935,
      "comedy": 7936,
      "thump": 7937,
      "eno": 7938,
      "array": 7939,
      "aux": 7940,
      "Or": 7941,
      "cupboard": 7942,
      "sandwi": 7943,
      "shriek": 7944,
      "corps": 7945,
      "riders": 7946,
      "qualities": 7947,
      "courtesy": 7948,
      "caesar": 7949,
      "germany": 7950,
      "heaps": 7951,
      "ino": 7952,
      "mister": 7953,
      "injury": 7954,
      "fugitives": 7955,
      "eth": 7956,
      "soap": 7957,
      "sieg": 7958,
      "oxen": 7959,
      "vier": 7960,
      "hawks": 7961,
      "afforded": 7962,
      "pover": 7963,
      "defeated": 7964,
      "results": 7965,
      "detail": 7966,
      "gery": 7967,
      "ascended": 7968,
      "innoc": 7969,
      "gab": 7970,
      "sorely": 7971,
      "panic": 7972,
      "scratched": 7973,
      "dere": 7974,
      "dexter": 7975,
      "hillside": 7976,
      "requested": 7977,
      "greed": 7978,
      "spending": 7979,
      "chment": 7980,
      "glances": 7981,
      "gesture": 7982,
      "wiser": 7983,
      "swo": 7984,
      "liest": 7985,
      "pedro": 7986,
      "strolled": 7987,
      "courte": 7988,
      "football": 7989,
      "aeroplane": 7990,
      "gill": 7991,
      "aris": 7992,
      "confined": 7993,
      "ghosts": 7994,
      "founded": 7995,
      "passford": 7996,
      "highway": 7997,
      "persuade": 7998,
      "lark": 7999,
      "rasc": 8000,
      "lem": 8001,
      "strode": 8002,
      "attract": 8003,
      "felicity": 8004,
      "kir": 8005,
      "lum": 8006,
      "mix": 8007,
      "demonstr": 8008,
      "token": 8009,
      "butler": 8010,
      "upwards": 8011,
      "apologi": 8012,
      "shillings": 8013,
      "minis": 8014,
      "busily": 8015,
      "defenders": 8016,
      "pudding": 8017,
      "dashing": 8018,
      "seeds": 8019,
      "joyfully": 8020,
      "paradise": 8021,
      "ghth": 8022,
      "definite": 8023,
      "maintain": 8024,
      "responsibility": 8025,
      "reference": 8026,
      "eding": 8027,
      "peering": 8028,
      "passenger": 8029,
      "farmhouse": 8030,
      "wilson": 8031,
      "Sounds": 8032,
      "irrit": 8033,
      "duncan": 8034,
      "noisy": 8035,
      "cam": 8036,
      "skirt": 8037,
      "depends": 8038,
      "forbidden": 8039,
      "hudson": 8040,
      "aught": 8041,
      "entit": 8042,
      "withstanding": 8043,
      "offended": 8044,
      "roughly": 8045,
      "elegant": 8046,
      "toil": 8047,
      "unty": 8048,
      "orderly": 8049,
      "beatrice": 8050,
      "departing": 8051,
      "genuine": 8052,
      "blad": 8053,
      "improved": 8054,
      "manly": 8055,
      "firmed": 8056,
      "frankly": 8057,
      "olph": 8058,
      "strengthen": 8059,
      "inal": 8060,
      "seating": 8061,
      "colate": 8062,
      "consequently": 8063,
      "allies": 8064,
      "illness": 8065,
      "marion": 8066,
      "commanding": 8067,
      "pearls": 8068,
      "Oh": 8069,
      "athos": 8070,
      "captives": 8071,
      "harlowe": 8072,
      "conflict": 8073,
      "portugue": 8074,
      "trench": 8075,
      "cox": 8076,
      "boiled": 8077,
      "travilla": 8078,
      "supposing": 8079,
      "patron": 8080,
      "sunrise": 8081,
      "tube": 8082,
      "consul": 8083,
      "contempt": 8084,
      "annoyed": 8085,
      "caleb": 8086,
      "constance": 8087,
      "karl": 8088,
      "24": 8089,
      "loaf": 8090,
      "precip": 8091,
      "trenches": 8092,
      "envy": 8093,
      "dost": 8094,
      "manu": 8095,
      "sham": 8096,
      "package": 8097,
      "amenities": 8098,
      "province": 8099,
      "corridor": 8100,
      "sprung": 8101,
      "newcom": 8102,
      "stuart": 8103,
      "nathan": 8104,
      "newly": 8105,
      "salem": 8106,
      "hailed": 8107,
      "bungal": 8108,
      "expenses": 8109,
      "bacon": 8110,
      "crystal": 8111,
      "bottles": 8112,
      "california": 8113,
      "wars": 8114,
      "forti": 8115,
      "shr": 8116,
      "lakes": 8117,
      "foli": 8118,
      "glas": 8119,
      "furnish": 8120,
      "iser": 8121,
      "ample": 8122,
      "print": 8123,
      "shire": 8124,
      "droop": 8125,
      "promising": 8126,
      "emphas": 8127,
      "intelligent": 8128,
      "fork": 8129,
      "coarse": 8130,
      "interposed": 8131,
      "contrast": 8132,
      "encouraged": 8133,
      "vigorously": 8134,
      "portuguese": 8135,
      "howling": 8136,
      "rett": 8137,
      "characteristic": 8138,
      "renewed": 8139,
      "chipmun": 8140,
      "vall": 8141,
      "aching": 8142,
      "gulf": 8143,
      "nations": 8144,
      "plum": 8145,
      "entertained": 8146,
      "jaws": 8147,
      "morse": 8148,
      "zell": 8149,
      "complex": 8150,
      "cen": 8151,
      "choo": 8152,
      "abundance": 8153,
      "elise": 8154,
      "hopeful": 8155,
      "source": 8156,
      "marsha": 8157,
      "miner": 8158,
      "repent": 8159,
      "viour": 8160,
      "ginger": 8161,
      "stationed": 8162,
      "perceive": 8163,
      "brushed": 8164,
      "rubb": 8165,
      "lina": 8166,
      "basin": 8167,
      "shawl": 8168,
      "hullo": 8169,
      "_exeunt": 8170,
      "pomp": 8171,
      "pitcher": 8172,
      "springs": 8173,
      "enchanted": 8174,
      "conquered": 8175,
      "matis": 8176,
      "huh": 8177,
      "october": 8178,
      "lloyd": 8179,
      "presume": 8180,
      "groom": 8181,
      "inval": 8182,
      "charlotte": 8183,
      "raymond": 8184,
      "Inn": 8185,
      "bould": 8186,
      "carved": 8187,
      "sights": 8188,
      "striped": 8189,
      "twit": 8190,
      "betrayed": 8191,
      "rd": 8192,
      "inher": 8193,
      "sentry": 8194,
      "prime": 8195,
      "chocolate": 8196,
      "quoth": 8197,
      "stun": 8198,
      "trout": 8199,
      "reserve": 8200,
      "leop": 8201,
      "hose": 8202,
      "sung": 8203,
      "briar": 8204,
      "fishermen": 8205,
      "phoebe": 8206,
      "discou": 8207,
      "tug": 8208,
      "teachers": 8209,
      "critic": 8210,
      "rier": 8211,
      "hostile": 8212,
      "debt": 8213,
      "oven": 8214,
      "mew": 8215,
      "tah": 8216,
      "tray": 8217,
      "charity": 8218,
      "cowboys": 8219,
      "gardener": 8220,
      "torped": 8221,
      "umboo": 8222,
      "yielded": 8223,
      "dismissed": 8224,
      "jackal": 8225,
      "joyful": 8226,
      "grizz": 8227,
      "victor": 8228,
      "_exit": 8229,
      "beans": 8230,
      "readers": 8231,
      "jeanne": 8232,
      "picturesque": 8233,
      "buffaloes": 8234,
      "alighted": 8235,
      "torpedo": 8236,
      "fris": 8237,
      "ouston": 8238,
      "opposition": 8239,
      "dalzell": 8240,
      "respectable": 8241,
      "mity": 8242,
      "spectators": 8243,
      "liking": 8244,
      "musical": 8245,
      "prints": 8246,
      "carpenter": 8247,
      "ai": 8248,
      "comforted": 8249,
      "cushion": 8250,
      "erick": 8251,
      "spies": 8252,
      "mbles": 8253,
      "emerald": 8254,
      "yu": 8255,
      "leigh": 8256,
      "haunted": 8257,
      "generals": 8258,
      "emphat": 8259,
      "grasping": 8260,
      "ditch": 8261,
      "notwithstanding": 8262,
      "wherefore": 8263,
      "lighter": 8264,
      "keenly": 8265,
      "rhe": 8266,
      "atus": 8267,
      "owls": 8268,
      "rightly": 8269,
      "growl": 8270,
      "whispering": 8271,
      "glare": 8272,
      "nast": 8273,
      "ceiling": 8274,
      "shared": 8275,
      "startling": 8276,
      "temptation": 8277,
      "geoff": 8278,
      "warner": 8279,
      "practically": 8280,
      "withdrew": 8281,
      "april": 8282,
      "bucket": 8283,
      "nervously": 8284,
      "humour": 8285,
      "defense": 8286,
      "convic": 8287,
      "occupation": 8288,
      "rebels": 8289,
      "subdued": 8290,
      "Here": 8291,
      "psed": 8292,
      "population": 8293,
      "endeavour": 8294,
      "etern": 8295,
      "ddled": 8296,
      "lewis": 8297,
      "gypsy": 8298,
      "destination": 8299,
      "stalk": 8300,
      "remembrance": 8301,
      "edmund": 8302,
      "cester": 8303,
      "century": 8304,
      "screaming": 8305,
      "vegetables": 8306,
      "All": 8307,
      "twas": 8308,
      "reef": 8309,
      "pattern": 8310,
      "franco": 8311,
      "concert": 8312,
      "transfer": 8313,
      "michael": 8314,
      "temporary": 8315,
      "idly": 8316,
      "onet": 8317,
      "illumin": 8318,
      "dicky": 8319,
      "leads": 8320,
      "printed": 8321,
      "grasshop": 8322,
      "fiddle": 8323,
      "juniors": 8324,
      "revi": 8325,
      "whirled": 8326,
      "chop": 8327,
      "image": 8328,
      "cope": 8329,
      "wailed": 8330,
      "gorgeous": 8331,
      "joyous": 8332,
      "recommend": 8333,
      "chine": 8334,
      "rapt": 8335,
      "area": 8336,
      "puts": 8337,
      "nearby": 8338,
      "frey": 8339,
      "select": 8340,
      "American": 8341,
      "altar": 8342,
      "created": 8343,
      "Could": 8344,
      "reel": 8345,
      "formid": 8346,
      "messages": 8347,
      "embrace": 8348,
      "rying": 8349,
      "exclaim": 8350,
      "ruby": 8351,
      "harvey": 8352,
      "distribut": 8353,
      "calculated": 8354,
      "ota": 8355,
      "squadron": 8356,
      "itors": 8357,
      "pher": 8358,
      "cep": 8359,
      "stops": 8360,
      "draught": 8361,
      "divide": 8362,
      "ppi": 8363,
      "attempts": 8364,
      "angels": 8365,
      "55": 8366,
      "gel": 8367,
      "descending": 8368,
      "barrels": 8369,
      "sively": 8370,
      "wireless": 8371,
      "frontier": 8372,
      "abode": 8373,
      "formidable": 8374,
      "cheering": 8375,
      "hesitating": 8376,
      "ambition": 8377,
      "entitled": 8378,
      "bean": 8379,
      "weas": 8380,
      "dore": 8381,
      "ggling": 8382,
      "primrose": 8383,
      "eun": 8384,
      "ply": 8385,
      "univers": 8386,
      "wires": 8387,
      "volley": 8388,
      "cate": 8389,
      "continent": 8390,
      "hesitate": 8391,
      "buttons": 8392,
      "emergency": 8393,
      "issue": 8394,
      "mode": 8395,
      "owners": 8396,
      "elk": 8397,
      "swain": 8398,
      "rocking": 8399,
      "murdered": 8400,
      "depended": 8401,
      "perplexed": 8402,
      "supre": 8403,
      "mans": 8404,
      "virtue": 8405,
      "anthea": 8406,
      "prices": 8407,
      "tucked": 8408,
      "hilda": 8409,
      "mult": 8410,
      "thad": 8411,
      "willie": 8412,
      "manifest": 8413,
      "sting": 8414,
      "capacity": 8415,
      "maintained": 8416,
      "poverty": 8417,
      "model": 8418,
      "abner": 8419,
      "margy": 8420,
      "appla": 8421,
      "gaining": 8422,
      "spinning": 8423,
      "uar": 8424,
      "insp": 8425,
      "polished": 8426,
      "plunder": 8427,
      "psies": 8428,
      "steele": 8429,
      "awaken": 8430,
      "moses": 8431,
      "kenned": 8432,
      "engines": 8433,
      "Del": 8434,
      "mab": 8435,
      "oi": 8436,
      "wers": 8437,
      "cedar": 8438,
      "dusty": 8439,
      "francois": 8440,
      "applause": 8441,
      "ala": 8442,
      "hamlet": 8443,
      "murde": 8444,
      "neighbours": 8445,
      "bungalow": 8446,
      "hic": 8447,
      "besee": 8448,
      "races": 8449,
      "anty": 8450,
      "clematis": 8451,
      "learnt": 8452,
      "hideous": 8453,
      "crabtree": 8454,
      "bestowed": 8455,
      "glo": 8456,
      "lamps": 8457,
      "abouts": 8458,
      "patted": 8459,
      "critical": 8460,
      "sympathetic": 8461,
      "messengers": 8462,
      "2nd": 8463,
      "insult": 8464,
      "disaster": 8465,
      "edges": 8466,
      "sopho": 8467,
      "unwilling": 8468,
      "dislike": 8469,
      "dismal": 8470,
      "occupy": 8471,
      "discussed": 8472,
      "scenery": 8473,
      "cecile": 8474,
      "nicholas": 8475,
      "3rd": 8476,
      "fection": 8477,
      "dive": 8478,
      "inquiry": 8479,
      "hilde": 8480,
      "soothing": 8481,
      "flatter": 8482,
      "resort": 8483,
      "muriel": 8484,
      "banquet": 8485,
      "pursuers": 8486,
      "summons": 8487,
      "tez": 8488,
      "kenne": 8489,
      "rash": 8490,
      "iner": 8491,
      "beau": 8492,
      "ggles": 8493,
      "muddy": 8494,
      "geons": 8495,
      "commer": 8496,
      "italy": 8497,
      "sturdy": 8498,
      "parcel": 8499,
      "miners": 8500,
      "tennis": 8501,
      "clothed": 8502,
      "millions": 8503,
      "uniforms": 8504,
      "intentions": 8505,
      "veter": 8506,
      "adjust": 8507,
      "mischie": 8508,
      "crad": 8509,
      "garde": 8510,
      "brighter": 8511,
      "tailor": 8512,
      "thickly": 8513,
      "characters": 8514,
      "witnessed": 8515,
      "intimate": 8516,
      "physician": 8517,
      "chipmunk": 8518,
      "sahi": 8519,
      "science": 8520,
      "promises": 8521,
      "mildred": 8522,
      "rever": 8523,
      "perry": 8524,
      "pursue": 8525,
      "nightfall": 8526,
      "starve": 8527,
      "xton": 8528,
      "impatience": 8529,
      "rags": 8530,
      "doctors": 8531,
      "earthly": 8532,
      "specul": 8533,
      "nesses": 8534,
      "kissing": 8535,
      "kicking": 8536,
      "proceedings": 8537,
      "kna": 8538,
      "monarch": 8539,
      "armor": 8540,
      "marty": 8541,
      "artock": 8542,
      "vexed": 8543,
      "baartock": 8544,
      "frightful": 8545,
      "jabe": 8546,
      "fishes": 8547,
      "religious": 8548,
      "tast": 8549,
      "tackle": 8550,
      "circuit": 8551,
      "whipped": 8552,
      "spider": 8553,
      "hallo": 8554,
      "aided": 8555,
      "limited": 8556,
      "sday": 8557,
      "haught": 8558,
      "glist": 8559,
      "tongues": 8560,
      "homeward": 8561,
      "parking": 8562,
      "strate": 8563,
      "confron": 8564,
      "liver": 8565,
      "drawer": 8566,
      "fitness": 8567,
      "distinguish": 8568,
      "kennedy": 8569,
      "dul": 8570,
      "chus": 8571,
      "display": 8572,
      "mona": 8573,
      "parade": 8574,
      "sarcas": 8575,
      "uno": 8576,
      "cutter": 8577,
      "slippers": 8578,
      "cruise": 8579,
      "gymn": 8580,
      "romance": 8581,
      "melville": 8582,
      "announcement": 8583,
      "rushes": 8584,
      "rejoicing": 8585,
      "baw": 8586,
      "restore": 8587,
      "whereupon": 8588,
      "este": 8589,
      "dazz": 8590,
      "sophomore": 8591,
      "asks": 8592,
      "licted": 8593,
      "thereupon": 8594,
      "ders": 8595,
      "shaft": 8596,
      "gallery": 8597,
      "relative": 8598,
      "izen": 8599,
      "resign": 8600,
      "interests": 8601,
      "hostess": 8602,
      "tidings": 8603,
      "oline": 8604,
      "outward": 8605,
      "transp": 8606,
      "onond": 8607,
      "terrace": 8608,
      "msy": 8609,
      "heavier": 8610,
      "profit": 8611,
      "hymn": 8612,
      "vish": 8613,
      "tossing": 8614,
      "aling": 8615,
      "factory": 8616,
      "program": 8617,
      "navig": 8618,
      "gruff": 8619,
      "exercis": 8620,
      "vigil": 8621,
      "energe": 8622,
      "rac": 8623,
      "iro": 8624,
      "spake": 8625,
      "muskrat": 8626,
      "quaint": 8627,
      "clara": 8628,
      "shovel": 8629,
      "erected": 8630,
      "christians": 8631,
      "alle": 8632,
      "farmers": 8633,
      "dormi": 8634,
      "succession": 8635,
      "noses": 8636,
      "coals": 8637,
      "shack": 8638,
      "student": 8639,
      "rington": 8640,
      "cardinal": 8641,
      "bertram": 8642,
      "purposes": 8643,
      "signals": 8644,
      "Does": 8645,
      "assailants": 8646,
      "urs": 8647,
      "painter": 8648,
      "marshal": 8649,
      "kather": 8650,
      "weeds": 8651,
      "esqu": 8652,
      "actors": 8653,
      "gic": 8654,
      "distra": 8655,
      "countrymen": 8656,
      "slack": 8657,
      "expert": 8658,
      "delayed": 8659,
      "strongest": 8660,
      "dew": 8661,
      "mayor": 8662,
      "lingered": 8663,
      "staircase": 8664,
      "luckily": 8665,
      "faithfully": 8666,
      "casting": 8667,
      "celebrated": 8668,
      "crom": 8669,
      "erin": 8670,
      "sorrowful": 8671,
      "kiow": 8672,
      "8th": 8673,
      "missis": 8674,
      "amiable": 8675,
      "boun": 8676,
      "heid": 8677,
      "birch": 8678,
      "kentuck": 8679,
      "necks": 8680,
      "breach": 8681,
      "starved": 8682,
      "thrilling": 8683,
      "slopes": 8684,
      "earliest": 8685,
      "skull": 8686,
      "35": 8687,
      "destined": 8688,
      "humming": 8689,
      "orphan": 8690,
      "beech": 8691,
      "entreat": 8692,
      "conspir": 8693,
      "gipsy": 8694,
      "junction": 8695,
      "atory": 8696,
      "causing": 8697,
      "pausing": 8698,
      "smoked": 8699,
      "declined": 8700,
      "challenge": 8701,
      "nasty": 8702,
      "mig": 8703,
      "lecture": 8704,
      "methinks": 8705,
      "aments": 8706,
      "discharge": 8707,
      "admiring": 8708,
      "Delta": 8709,
      "hil": 8710,
      "sill": 8711,
      "sacks": 8712,
      "contact": 8713,
      "adela": 8714,
      "giles": 8715,
      "gau": 8716,
      "actual": 8717,
      "storms": 8718,
      "equi": 8719,
      "majority": 8720,
      "perplex": 8721,
      "ghast": 8722,
      "childhood": 8723,
      "danes": 8724,
      "bred": 8725,
      "answers": 8726,
      "morton": 8727,
      "situated": 8728,
      "plunge": 8729,
      "columns": 8730,
      "arise": 8731,
      "circ": 8732,
      "muscles": 8733,
      "assurance": 8734,
      "dow": 8735,
      "sledge": 8736,
      "adi": 8737,
      "tap": 8738,
      "xture": 8739,
      "tempered": 8740,
      "antelope": 8741,
      "cough": 8742,
      "stack": 8743,
      "descent": 8744,
      "borrow": 8745,
      "February": 8746,
      "Houston": 8747,
      "init": 8748,
      "formation": 8749,
      "flush": 8750,
      "dreaded": 8751,
      "accord": 8752,
      "sprink": 8753,
      "paired": 8754,
      "scur": 8755,
      "skunk": 8756,
      "establishment": 8757,
      "gwine": 8758,
      "ito": 8759,
      "selling": 8760,
      "sided": 8761,
      "bravery": 8762,
      "felix": 8763,
      "bure": 8764,
      "ez": 8765,
      "foremost": 8766,
      "valiant": 8767,
      "benjam": 8768,
      "successfully": 8769,
      "dimin": 8770,
      "avoided": 8771,
      "St": 8772,
      "atlan": 8773,
      "depos": 8774,
      "attempting": 8775,
      "Thanks": 8776,
      "marvell": 8777,
      "brewster": 8778,
      "bé": 8779,
      "pertell": 8780,
      "violin": 8781,
      "unexpectedly": 8782,
      "peasants": 8783,
      "cin": 8784,
      "gull": 8785,
      "retreated": 8786,
      "onward": 8787,
      "ides": 8788,
      "cos": 8789,
      "coax": 8790,
      "paces": 8791,
      "youngster": 8792,
      "sounding": 8793,
      "cherry": 8794,
      "lindsay": 8795,
      "iors": 8796,
      "approve": 8797,
      "abandon": 8798,
      "reinforce": 8799,
      "benjamin": 8800,
      "dened": 8801,
      "coral": 8802,
      "wreath": 8803,
      "antonio": 8804,
      "kneeling": 8805,
      "ands": 8806,
      "nings": 8807,
      "diver": 8808,
      "soundly": 8809,
      "salute": 8810,
      "heights": 8811,
      "recognised": 8812,
      "infinite": 8813,
      "maple": 8814,
      "pretending": 8815,
      "specific": 8816,
      "sweetest": 8817,
      "precisely": 8818,
      "omin": 8819,
      "stubb": 8820,
      "doubts": 8821,
      "sends": 8822,
      "ints": 8823,
      "whim": 8824,
      "ribs": 8825,
      "captains": 8826,
      "blushed": 8827,
      "zon": 8828,
      "barked": 8829,
      "formerly": 8830,
      "300": 8831,
      "represented": 8832,
      "affect": 8833,
      "grabbed": 8834,
      "certainty": 8835,
      "dripping": 8836,
      "fools": 8837,
      "accused": 8838,
      "acknowledged": 8839,
      "flit": 8840,
      "lick": 8841,
      "ables": 8842,
      "wrist": 8843,
      "ells": 8844,
      "hospitality": 8845,
      "alan": 8846,
      "mblance": 8847,
      "guish": 8848,
      "attending": 8849,
      "negroes": 8850,
      "linda": 8851,
      "geese": 8852,
      "leness": 8853,
      "conviction": 8854,
      "seamen": 8855,
      "glided": 8856,
      "smashed": 8857,
      "tremble": 8858,
      "curdie": 8859,
      "wallace": 8860,
      "fortress": 8861,
      "unkind": 8862,
      "agin": 8863,
      "lighting": 8864,
      "paddy": 8865,
      "securely": 8866,
      "expensive": 8867,
      "lings": 8868,
      "doubtfully": 8869,
      "aimed": 8870,
      "inspection": 8871,
      "Well": 8872,
      "eradic": 8873,
      "activity": 8874,
      "suming": 8875,
      "youthful": 8876,
      "fruits": 8877,
      "blocks": 8878,
      "trains": 8879,
      "parker": 8880,
      "shivered": 8881,
      "welsh": 8882,
      "bloody": 8883,
      "cheyen": 8884,
      "charges": 8885,
      "randolph": 8886,
      "bers": 8887,
      "disappear": 8888,
      "shiver": 8889,
      "westward": 8890,
      "TV": 8891,
      "previously": 8892,
      "traces": 8893,
      "repul": 8894,
      "flags": 8895,
      "occupants": 8896,
      "fatigue": 8897,
      "stunned": 8898,
      "auntie": 8899,
      "veins": 8900,
      "twist": 8901,
      "sleeves": 8902,
      "carriages": 8903,
      "sins": 8904,
      "nomin": 8905,
      "nels": 8906,
      "mirth": 8907,
      "writer": 8908,
      "transport": 8909,
      "throp": 8910,
      "ribbons": 8911,
      "'?\"": 8912,
      "orleans": 8913,
      "dili": 8914,
      "grab": 8915,
      "woodman": 8916,
      "sensit": 8917,
      "defended": 8918,
      "deliberately": 8919,
      "chinese": 8920,
      "lug": 8921,
      "chaps": 8922,
      "resour": 8923,
      "muske": 8924,
      "trader": 8925,
      "maurice": 8926,
      "',\"": 8927,
      "remed": 8928,
      "players": 8929,
      "blacksmith": 8930,
      "pairs": 8931,
      "suspense": 8932,
      "priests": 8933,
      "gigantic": 8934,
      "anticipated": 8935,
      "inward": 8936,
      "lorn": 8937,
      "crut": 8938,
      "ensive": 8939,
      "worms": 8940,
      "preston": 8941,
      "shocked": 8942,
      "gleaming": 8943,
      "7th": 8944,
      "loco": 8945,
      "prick": 8946,
      "commonly": 8947,
      "dolph": 8948,
      "200": 8949,
      "fag": 8950,
      "onica": 8951,
      "offence": 8952,
      "frantic": 8953,
      "genre": 8954,
      "avail": 8955,
      "tat": 8956,
      "toma": 8957,
      "cheery": 8958,
      "banner": 8959,
      "grammar": 8960,
      "Su": 8961,
      "depri": 8962,
      "underground": 8963,
      "landers": 8964,
      "surroundings": 8965,
      "yankee": 8966,
      "rene": 8967,
      "toast": 8968,
      "web": 8969,
      "backwards": 8970,
      "childish": 8971,
      "clif": 8972,
      "approved": 8973,
      "strokes": 8974,
      "ruler": 8975,
      "weasel": 8976,
      "liable": 8977,
      "attacking": 8978,
      "citizen": 8979,
      "advert": 8980,
      "neared": 8981,
      "canad": 8982,
      "file": 8983,
      "marquis": 8984,
      "crashing": 8985,
      "bait": 8986,
      "dalton": 8987,
      "superintendent": 8988,
      "rovers": 8989,
      "offers": 8990,
      "cuff": 8991,
      "pennington": 8992,
      "complaint": 8993,
      "odds": 8994,
      "merchants": 8995,
      "opposed": 8996,
      "assigned": 8997,
      "begging": 8998,
      "immensely": 8999,
      "independent": 9000,
      "rotten": 9001,
      "yells": 9002,
      "treachery": 9003,
      "portrait": 9004,
      "supreme": 9005,
      "fring": 9006,
      "borough": 9007,
      "sloop": 9008,
      "buying": 9009,
      "toler": 9010,
      "moist": 9011,
      "evenings": 9012,
      "freshman": 9013,
      "pines": 9014,
      "adri": 9015,
      "tak": 9016,
      "arers": 9017,
      "camel": 9018,
      "ferry": 9019,
      "shorter": 9020,
      "pussy": 9021,
      "bia": 9022,
      "alling": 9023,
      "canyon": 9024,
      "crop": 9025,
      "quisite": 9026,
      "broom": 9027,
      "emin": 9028,
      "stewart": 9029,
      "honestly": 9030,
      "perilous": 9031,
      "develop": 9032,
      "minor": 9033,
      "intru": 9034,
      "freight": 9035,
      "bathing": 9036,
      "territory": 9037,
      "stoutly": 9038,
      "\",": 9039,
      "noticing": 9040,
      "abund": 9041,
      "youngsters": 9042,
      "onondaga": 9043,
      "heavenly": 9044,
      "britain": 9045,
      "pacific": 9046,
      "statue": 9047,
      "kenneth": 9048,
      "pall": 9049,
      "wrest": 9050,
      "sobbing": 9051,
      "unnecessary": 9052,
      "proving": 9053,
      "porthos": 9054,
      "pollard": 9055,
      "gravity": 9056,
      "sions": 9057,
      "aloft": 9058,
      "faults": 9059,
      "prope": 9060,
      "tingu": 9061,
      "prussi": 9062,
      "frowned": 9063,
      "extending": 9064,
      "eradicate": 9065,
      "bellow": 9066,
      "extingu": 9067,
      "spic": 9068,
      "confidently": 9069,
      "morgan": 9070,
      "fitz": 9071,
      "deceive": 9072,
      "recovering": 9073,
      "trumpet": 9074,
      "instinct": 9075,
      "grocery": 9076,
      "roscoe": 9077,
      "disease": 9078,
      "yelling": 9079,
      "smote": 9080,
      "flora": 9081,
      "volunteered": 9082,
      "rilla": 9083,
      "monk": 9084,
      "finishing": 9085,
      "bundles": 9086,
      "flax": 9087,
      "sworn": 9088,
      "minnie": 9089,
      "bushy": 9090,
      "loun": 9091,
      "noises": 9092,
      "alb": 9093,
      "addin": 9094,
      "elderly": 9095,
      "atlantic": 9096,
      "ingen": 9097,
      "safer": 9098,
      "sampson": 9099,
      "mosqu": 9100,
      "exquisite": 9101,
      "chau": 9102,
      "vii": 9103,
      "coldly": 9104,
      "gasp": 9105,
      "titus": 9106,
      "encouraging": 9107,
      "harrison": 9108,
      "wigw": 9109,
      "developed": 9110,
      "wiping": 9111,
      "stooping": 9112,
      "subst": 9113,
      "chattering": 9114,
      "faltered": 9115,
      "privilege": 9116,
      "pins": 9117,
      "aladdin": 9118,
      "dipped": 9119,
      "waiter": 9120,
      "colony": 9121,
      "wretch": 9122,
      "moors": 9123,
      "exult": 9124,
      "howled": 9125,
      "crawling": 9126,
      "torious": 9127,
      "swan": 9128,
      "radio": 9129,
      "bond": 9130,
      "background": 9131,
      "dict": 9132,
      "favorable": 9133,
      "cigaret": 9134,
      "knitting": 9135,
      "redou": 9136,
      "medit": 9137,
      "monstr": 9138,
      "settlers": 9139,
      "neighbouring": 9140,
      "amis": 9141,
      "cigar": 9142,
      "respective": 9143,
      "alligator": 9144,
      "hell": 9145,
      "unseen": 9146,
      "shiny": 9147,
      "sighted": 9148,
      "strikes": 9149,
      "laware": 9150,
      "corporal": 9151,
      "tart": 9152,
      "valleys": 9153,
      "ivory": 9154,
      "squirrels": 9155,
      "dispute": 9156,
      "november": 9157,
      "slippery": 9158,
      "rea": 9159,
      "raining": 9160,
      "failing": 9161,
      "emptied": 9162,
      "remarkably": 9163,
      "dine": 9164,
      "agon": 9165,
      "lowest": 9166,
      "revolution": 9167,
      "educated": 9168,
      "scan": 9169,
      "geor": 9170,
      "bobol": 9171,
      "dix": 9172,
      "boom": 9173,
      "snee": 9174,
      "traders": 9175,
      "endeavor": 9176,
      "constructed": 9177,
      "bobolink": 9178,
      "delaware": 9179,
      "ighed": 9180,
      "quicker": 9181,
      "persist": 9182,
      "thursday": 9183,
      "burglar": 9184,
      "employer": 9185,
      "tley": 9186,
      "gerva": 9187,
      "merle": 9188,
      "genial": 9189,
      "forlorn": 9190,
      "doin": 9191,
      "constern": 9192,
      "shady": 9193,
      "bounds": 9194,
      "isobel": 9195,
      "terer": 9196,
      "sermon": 9197,
      "stillness": 9198,
      "blacky": 9199,
      "thresh": 9200,
      "hannah": 9201,
      "moore": 9202,
      "rio": 9203,
      "cleaned": 9204,
      "sliding": 9205,
      "leopard": 9206,
      "consternation": 9207,
      "pans": 9208,
      "alm": 9209,
      "poha": 9210,
      "jokes": 9211,
      "grub": 9212,
      "galloping": 9213,
      "spectacle": 9214,
      "disgusted": 9215,
      "scornfully": 9216,
      "stubborn": 9217,
      "soever": 9218,
      "serves": 9219,
      "appealed": 9220,
      "bbling": 9221,
      "december": 9222,
      "obedient": 9223,
      "prevailed": 9224,
      "gence": 9225,
      "odor": 9226,
      "goodbye": 9227,
      "barred": 9228,
      "chariot": 9229,
      "panted": 9230,
      "income": 9231,
      "herb": 9232,
      "petal": 9233,
      "ification": 9234,
      "cradle": 9235,
      "cilla": 9236,
      "sits": 9237,
      "enlist": 9238,
      "watson": 9239,
      "closure": 9240,
      "bunkers": 9241,
      "soberly": 9242,
      "effie": 9243,
      "gings": 9244,
      "befallen": 9245,
      "cather": 9246,
      "satin": 9247,
      "launched": 9248,
      "drifting": 9249,
      "priscilla": 9250,
      "gervaise": 9251,
      "jet": 9252,
      "allan": 9253,
      "discre": 9254,
      "dily": 9255,
      "hug": 9256,
      "iana": 9257,
      "hinpoha": 9258,
      "insects": 9259,
      "invalid": 9260,
      "lease": 9261,
      "mob": 9262,
      "peach": 9263,
      "undertaking": 9264,
      "torches": 9265,
      "punch": 9266,
      "dimple": 9267,
      "posure": 9268,
      "hotly": 9269,
      "harvest": 9270,
      "ninety": 9271,
      "reluctantly": 9272,
      "indifferent": 9273,
      "discouraged": 9274,
      "hust": 9275,
      "til": 9276,
      "pledge": 9277,
      "pleasures": 9278,
      "furs": 9279,
      "clue": 9280,
      "clumsy": 9281,
      "apartments": 9282,
      "knots": 9283,
      "ruled": 9284,
      "average": 9285,
      "sse": 9286,
      "allied": 9287,
      "peeping": 9288,
      "strictly": 9289,
      "frogs": 9290,
      "gypsies": 9291,
      "particulars": 9292,
      "prudent": 9293,
      "midshipmen": 9294,
      "jabez": 9295,
      "rations": 9296,
      "stocking": 9297,
      "trapper": 9298,
      "prettiest": 9299,
      "travelers": 9300,
      "triumphantly": 9301,
      "foliage": 9302,
      "monstrous": 9303,
      "rains": 9304,
      "denied": 9305,
      "humphrey": 9306,
      "ugh": 9307,
      "toi": 9308,
      "adams": 9309,
      "covers": 9310,
      "laure": 9311,
      "spaniard": 9312,
      "domestic": 9313,
      "catherine": 9314,
      "tham": 9315,
      "tiers": 9316,
      "indicate": 9317,
      "discussing": 9318,
      "proprie": 9319,
      "included": 9320,
      "uneasily": 9321,
      "makers": 9322,
      "spit": 9323,
      "manufact": 9324,
      "steven": 9325,
      "alf": 9326,
      "soe": 9327,
      "slew": 9328,
      "sniffed": 9329,
      "sometime": 9330,
      "muse": 9331,
      "rises": 9332,
      "nicer": 9333,
      "grizzly": 9334,
      "katherine": 9335,
      "chauffe": 9336,
      "rocket": 9337,
      "lime": 9338,
      "openly": 9339,
      "nesday": 9340,
      "acquired": 9341,
      "opinions": 9342,
      "mili": 9343,
      "curse": 9344,
      "acknowledge": 9345,
      "legged": 9346,
[...]
